3CAE9C3F
BDC7CED0
3BB1B3A5
3CCD3DD4
BCF8488F
3DA0A639
BD04ED95
3D05A127
BCA4DD29
BDC97F7F
3E58F197
3E33B8AE
3E63EE7F
BDA69BDB
BDA61E73
3DA3462B
3D795911
3C7DF379
3CAC10CE
BD941228
3D7ADA83
3E435272
3E046A9C
3C325A88
BCEA9BD0
3CDC1470
BCC57DDA
3D3F7D03
BDC4FB70
BD07B799
3C615AE8
BD511A01
3CCCCF2F
BD0AC144
3DB2DD1B
BD815859
BD5DB877
BDA29A57
BD08F83D
3D0A2334
BE178950
BDADB9E9
BDFBD14B
3E1E4888
3CC00DBF
BE02FE05
3E3660C7
3BF632CB
BCCF677D
BD493538
BD2A3CCE
BD7A88A3
3D8207C6
BD254B53
3D961B59
BD33A73E
BDA4A584
BC079A39
3E11F629
3E0BEC1E
3DAD6307
3E2149F2
3C56BD14
3CB7DA9F
3C6459F9
BC70261D
BBE20E28
BC790631
3DBD084F
BDBE3010
BD212D02
BABEC234
3C3CE816
BDC8944E
3D29984D
BDD2A907
3C8A715F
BDAF503B
BDE5AC00
BD1B0A03
3E1BFCC0
3DEBF581
BC1A1184
3CFD1B82
BD8A4B51
3D389C38
BCD0BD05
BAFAFD7F
3D60D8F9
3DEF1495
BD9C28BD
3D1B100C
BE04C57B
3D38131B
3BA66C4A
3CFD687D
3BE830E9
BD55A9A6
3CEB7322
3C78B926
BD4A0C6A
BD082E7A
BD1742D5
BD7235EF
3DC058D9
BD8E5DE8
3D55AC3E
BDFE8DCD
3D1E1AE3
BBF55595
BD934B9B
BB18D284
BD404B3F
BD52757D
3DD3A340
3DA23C56
BD0C4258
3BCBBBBC
3E14543E
3CB2477F
BDB2E543
3D80B542
3CDAC0BA
BD138D0A
3DAB1167
B9A7EA0D
3C7E4506
3C78FD00
3D6B475F
3D5322B0
BC7F47FF
3D83E950
3D5FA1C0
3DC15BAB
BE0CBF36
BD256132
3E0DBF91
BBDBF39A
3D2EFCE3
BC362BA5
BD6F8C47
3CC882FE
BB941FFA
3DA0EAB5
BB6484A7
BB782FBC
BD7F32A0
3D6BC119
BCA2C6B8
BD8D9B7C
3DC1293A
BCEA88FD
BD462E48
BDF37F89
BC2D7D35
BC41ADF4
BD44E080
3DE31746
3D5CF495
BD897F11
BC1BA1F3
3C851F37
BC4E8ED4
3D1B5E3F
BD744703
BD18D8DB
3D0AB5D5
BCEC215A
3DC6837D
3BC54A49
BE0317DD
BC732E77
B9E93AA8
3D909D5D
3D0CC964
3DD86609
3C02C174
3E028B8F
3DC5FA35
3DFED7F5
BDA92CE1
3C6CAAAC
BD98A4DC
BD4EF8FF
3DBC576E
BDCD1167
3CD426DF
3DB32955
BDB8EE90
3D268AF7
3DBACB91
BD715E28
BD0FB8E3
3CFB8E7A
3DA48794
3BD65531
BD6C39F9
BDA6D847
3C34C8AE
3DDE7D78
3B47403A
BDA77F6B
3AF9B381
BC036ED8
3DFC4E47
3DEF1D25
BCCDFC44
BD8925A0
BD242CFE
BD0CD5CD
BBA41D05
3D63C644
3DC6BADC
3CA6396E
3D9D974C
3DB9445B
BD5D3C68
3C849CF2
BC9D1E66
3D48A870
BDC211E1
BDC6466B
BDA103D0
3D20DE8B
BD90EC40
3D9F453F
BD240568
BBF02311
BDD4AD20
BCB4B43A
BD89C3F6
3DE8D046
3DEA470A
BDA3B833
3DBD0E4A
BD91E2A6
3DA1CC4C
BDC8B2ED
BD69F45E
3C5B3A52
BCD1E718
BD120104
3CF531D6
3C6B7540
BD89AE71
3D4327C2
3D90F866
BCB820F6
BC96EB2E
BD8965BF
BD8F52E5
BDB3A59B
3DC349EA
BD0F4C70
BD31B1E7
BD1C15E5
3D927E3A
3B2FC293
3D82D03B
BD382DCC
3D460588
BD93B0F1
3D85E0CB
BD238F3E
3DBAEB76
3C1F4E3E
3CC07106
BDA209A5
BCA68826
3D6BCED7
3D19868E
BD5D9BAE
BD8B568D
3D6FCF9B
3D78CAB6
3D467344
BCF11137
BD0554CD
3D8497E5
3DE23D9B
BD83D98C
3DAFFAB6
BB1A0793
3D455784
BE0208ED
3DB93ED1
3D9A8F2B
3D08B7DB
3D98570B
3C800141
3BA1B1C1
BDB6A561
3CD63F2E
BC874A1B
3A09D2A7
3A36307F
3CC16542
3DE956C4
BC15E506
3D9F231A
BD637BF7
3DD4EACA
BA9A0CDB
BE0C796F
3C98D1EA
3C934B3F
3DB03D07
3DF00982
BC54B251
BD38D6C4
3DE90D88
3DD58186
BD21581D
3D1E56DA
3DAA4154
BDD8B531
BD34690F
3D2B47A5
3DC62BA6
BD067E8B
BC91D571
3CFDC16D
3D9B96EA
3AF5043C
BD64E5B0
BCCDFBC5
3D606B0A
BD659AB3
3D9893D1
3D95C6F0
3D72BE02
BD452782
3DD90811
3D169328
BD8A5195
3C4278C5
3E010B44
3D07D96C
BBF3AE25
3B7CBFC3
BCCF21A5
BDAB56E7
BB453DC1
3DD7DFDF
3C999EC8
3C4A09E0
BC405353
3CD7E7BC
3CFA2CD8
3DC3B6DB
BD2AA006
3D5E6932
BCE2C271
BD55D948
BDA7A398
3D9BB813
3D3E981A
BD6A0F5A
BC8CB686
BD845E63
3D8DF58A
3AEB32FC
3DAF933B
BD8714AE
3D1962E0
3B1ED999
3D7F835F
BCF18027
BD4AD132
3C5D872A
BD08DFE8
3DE3B8CA
BD456DC5
BD9C562F
BA79CF52
3D9EA353
3D70EF3B
3D254E2D
3C112727
BBD695D8
BC5AE433
BC70A1DF
BDB7AB44
3D295FF9
3CED360D
3D24CE90
BD296587
BD430AD8
3DA5DE58
3DB63A9B
BC01AED0
3CE7FF07
BCFBA902
BD05A749
3CDEE04F
BCB4ACD1
3D33ED0D
39A16D06
BD9038AD
3DB027BB
3CEBA592
3D8407B8
BD1A04F9
3DEF4B39
3DED7B16
3D077F83
3CCFF187
BC9D7A6E
BCA57F64
3D1ECF71
BD6D059D
BD817B0C
BD0A5604
3D4B46DB
3C5BA2C9
3CEF939B
BD9F749F
BE07BA98
BD5D27E8
3D4F7B7C
BD4B8538
BDDF6B97
BD8D194D
3E1BC527
3C492433
BD784782
3DA1D728
3DCD84F3
BD1429BA
3D32F37F
BD3A08D3
BDA73656
BD8C8792
3C02B988
BD4FFA40
BD99EA77
BD9C7A25
3CCA5CAD
3D554EDA
3E284C71
3DEA1017
BDD9AB3D
BD6147EB
BC424D72
3D1EDDE1
3DBF9F9B
3CA58EDD
BAE39437
3CFCB1F2
BDA454BE
BD803336
3E125E2F
BD17FCF6
3DC9C1BF
3D11D6DB
3D38EBC1
BDC248D9
BDCCDCF7
BC09750D
BD439C7B
BDAAD5B3
BCEA37DA
BD67C46A
BC5D9782
3BC155D7
BD4972C1
BD60586F
BD1865AD
3CBF9DD3
3B236DC9
3D30881B
BB9468AA
BDC3ECFE
BC90C9C9
BCC98922
BD1C63EA
BC546D8A
3D643128
3CB919AA
3D7D5586
3DB57460
3B76F3B8
BBFD4669
BCC0E892
BC9E54B5
3C3EC4D9
3D4C6572
3D35D184
BDD1D420
3DD7FCB8
3DBC10DC
BDB64E12
BD9BF5BE
3B55C994
BDB40F32
3CE68F81
BD1889CD
3CAFCD56
3C3210E2
BD37527E
BD330E47
BD8BEEEB
BDA53055
3B8F5035
BD8FED75
3D72C8B5
3CD42683
BC69B01B
BC9DD522
3DB090BA
3D397060
BD89E845
3D2E8299
BD30BCE6
BCFA1F83
3D85CB3D
3D8066EB
3D394B29
3D19082E
BDACE2CD
3A44486E
BD0251EE
3CBA6664
BD8DA0F0
3C8ABE88
3D1376D8
BD8A9822
3D8290BA
3D4638D7
BD2BEA4B
3CA6B162
3D7399D0
BD272C08
BDB5C449
3D25AAE2
BD896397
BBCF36E1
3B8B9328
3BC8EE80
3C31AE66
BCB72F1D
3D8E2127
BCA26DC1
3D066258
3D35F1C5
3CBC2461
BD1CEE84
3CA3DD22
BCF33A7C
BD486A0B
BD802975
3BB2378B
3B8AE555
3D8F48A0
BC1EDB1E
BCCBAE62
BD618BB4
3CD4C884
BD55D186
BADA12AC
BD2782F4
3D2D904D
3CAD0E24
3D8381FE
BD0D4CB4
BD54046D
3D86F1F4
3DB2C7FB
3D772194
BD984F23
BD683113
3D4A174D
3DACC16F
3DDFA819
BD8EA33C
3CA962EB
BD7B1BF8
BD63C680
3DD0927A
BD80656E
3CEA912B
BD546FC4
3D72CE33
3CAD63F0
3D850E71
3CFFA4E9
3D15D242
BC623EB7
BD99B9E8
BD8B65AC
BD314A15
3C481A42
3D8DA614
3C18B27D
3D2F3C60
3D48A3E2
BCFDB72E
BDAD186C
BD1DC7A1
3DB4C532
BDB83AE8
BD7AD6FD
3BC92E48
BD36DE25
BCDE4E86
BD9BA588
BD594385
BD8EAA57
3E036124
BC09E58A
3D45F082
3D2D4F51
BE1DB9BC
3CB4F797
3DDE8E5C
BD69EE86
BE3084FB
3DE0A7E0
3D7EE86E
3B3928C1
3D7A5882
3D629E26
BDA9B55C
BD8DDC1E
3D85A9DE
BD84BA3B
BCA7D9F8
BDDB06D9
3ACC9DEE
3A938648
3DBCA96C
BD76F588
BC870C71
3E095D52
3C8C3AB3
BDC69736
BD551147
3D7295B4
BCFF361E
3DF6A6F4
BD838023
BB9C23FA
BB997FC6
3E04A8F5
BD971E05
BCE479C8
BDD95E34
BC53C4FF
BD2910EC
BD9DB6A8
3D4238F0
BD830240
BAE7D7AA
3D7AAE21
3DABF5A7
BCE00823
3CE96765
BDD233CE
3DFB2138
BDFFF30B
3D797316
3C5E1DE3
BDA1B104
BBC1B57C
3D7E7BBC
3D32554C
3BCEA9D1
3C9F6B08
3DB991E9
3D1B19A1
3D59EF47
3DC63BD3
BD4C4FB9
BDC13342
BD02FCB0
3D43F5B3
BD8F5BF5
BC3A42E3
BC803FD6
3E1FDD2D
BDA74108
3D0EC4A3
3BE31AC5
BD30B070
3D9A4F62
3D731200
BDAB6E74
3D65CDB7
BDFDF7A4
BC988AB1
BDA033B3
3E00AEB4
BDC73EEB
BDAD8A99
BD254BD6
3DACF31C
3C98273E
BD5FC1C1
3DEAA589
BD169FE5
BCCAE63F
3DC5B0E7
BCBEDFC5
3DAF997C
BDAC5BE2
BBD497E6
3D604723
BE16BE6A
BDB211F4
3D0B059B
3CAFD679
3C8B9542
BC89DCBA
3CA70C39
3CF01F93
3D0941E7
3D711919
3DA66C73
BE1DB9D6
3DEFCBF4
BD84C295
3DABC2C3
BD1CEAD1
3C149B46
BD962D18
BC59B561
BBD2AAA1
3D24A983
3CE2BC47
3B46C2C3
BCFAAB06
3DAB6F5D
3D3CE962
BD8A0D3E
3CB56C1F
3D17E211
3DAE133E
3DD47748
BBEEE092
BD259731
BDA6B8A0
BC9860F0
3D93C4C8
BD33BB53
3DBC8E84
3D3592BF
BD6E53E4
3D209BD6
BD9AAC51
3CBAF7ED
3DA74646
3C13FC6E
3D2D1602
3D5D572E
3D2914C0
3DC9AD81
BD53E9E2
3C0C49D4
BCBBCA2F
BC6CA55B
3D924747
3D26279F
3D2CFA3B
BD2E4A72
3C0B9933
3CB0B326
BD164FF4
3D060CCE
BCA36831
BCB079FD
3CBC16E4
BD2EFB77
BDA1A3A1
BD10F3B9
BDAF695A
BD8049B5
3D9AFE8A
BDC29A4C
3DB2DE8C
BDA2EFBD
3C441672
BD8BCA3D
3CC9156E
BC0DB3BD
3CFF73E2
BD915797
3D9A2F68
BD49FF2E
3DC234FF
BD6127CA
BCD72F80
BD95F0F8
BDA66AEB
3DC2C719
3D522C96
BD3C5B04
3D0D0A8B
BC2393A8
BB1493A1
BD8E4E10
BD861446
BD722C24
3D8F23EF
BD63A158
BD58B258
BD87ACF3
BD64DF13
3D74FC44
3C3AF400
3D8DD0BE
BDC3F20E
BC860254
3D4118F1
BD8FD1D6
3B5B3125
BCC3EEB1
BA9B52BD
39921FE4
BB6459B5
3DBFDB96
BD8F8544
BC617384
BD5DB02D
3CAA788D
BD6BC889
BD1DF8DB
BA38D233
BCC59304
BD85AE92
BCA7A63D
BC3EB45E
3DBCCFE5
BD128344
BCE5F323
BCA50847
BD636F37
3D956549
3D1625AB
3CEE4D2D
BD33096A
BCF7E2A9
BD11C28A
BC977208
3D5E09AD
3D8F4681
BCEA92D1
3D98264B
BD2BF06F
BCFAB2D4
3B8050F6
BCB8EE72
BB285571
3D36E17D
BDD2551B
BC8D88FA
3D9B6630
3DB03E7F
3D6F2BB1
3D87610C
3D6065B4
BDAC70A2
BD7ACB94
BD125F27
BD3F3806
3D1A4975
BDA4C9B3
3DA93640
3D31593C
BD3E9BF9
BD62B888
BC8745AC
BCB42E44
3C30017A
BD062277
BC582A16
3D3D976D
BD140CA7
BC99C9D8
3D58E963
3D8E0276
3D3B3883
3B3BB3CC
BD10C5C5
3D9F9716
BD491070
3DC6C621
BDE81579
BD8C1662
3D1F6C4D
3D2E396B
BC8E8862
BDB1051E
BD299250
BD7522F3
3D8A9148
3CBFDA7F
BD4CC19B
BD149F89
BB9931E9
3D143E6D
BB8904BD
3C171158
3C96CDB8
BBDA9095
3D266D07
BD593D95
BDC74208
3C1E56B6
3DB0BF3E
BC9C2883
BD91C313
3D802D44
BD590FDA
3DB8F382
BC11AACF
3CF0A759
BBB98D07
BD0E9A11
BDB78A86
3CAB8998
3D229B7B
3D7F43E4
BD4E502B
BBD027CD
3DA1CE94
3D2AC512
3D94A051
3E110931
BDD04A7D
3D12C05E
BD8E84E1
BD5382B0
BD3DB45F
BDACE9BB
BC56AB6C
BB120B72
3D80D203
BDA1F3C4
BD8ADE3B
3D8E23B8
3DA21B78
BD1ECB30
BDBB67A8
BD15D8A5
BD99D9F9
BD83D24C
3C9B2114
3DAF58AE
3CF9B6CD
3CEA9EF9
BD7032C1
3D240CB1
BCD9FD52
BD69D040
3D6DCBF5
BD00FDD2
BD1A17EE
3DDF1F36
3D94813B
3D2DEB0E
3DA4610F
BD56DC72
3D9D3251
3B93FBD0
BA844F99
BD42EC1A
BCDCBD29
3C3D8C7A
BD5AD56A
3D6BF933
BCEAC871
3D627FEB
3AFDADDD
3DB90435
BC17EFC7
BD8A6486
3DEE23BE
3BBE3CBD
3D149DF5
BD408862
3D327604
BC869EEE
BD07B5FD
3D3640BE
BD4E6C43
3D42FC24
3D1AEA0D
BD30B0A7
3DA0FAB3
3D48967F
3C98D8ED
3CE3F989
37084FE3
BDA4BB54
BD9D2D92
3DA4070F
BD41ED27
3D7862FF
BDB0D826
BDB78036
BD6815F8
3D877681
3D311884
3CC0BEA1
BD54A21F
3DCC5CD1
3C884B6B
3CDAFC5C
3E01BC0C
3C59D9C3
BD1E9F8D
3D61AF0F
BBFF4CD4
BC2FA69D
BC62B018
3BFAC3EE
BD31CF96
3CAB0F2F
BD9996FE
BD11E3CE
BD2C9C20
3DBB6635
BD5BE829
BCC1D499
3D4BCDF4
BC0DE0A5
3B5A38B5
BD5B45B0
3D0C37BB
3B9372BB
3D370885
BDA6C4B6
3CB61F9F
BCB715F1
BB83841C
3D7F9C90
BD54C06D
BC1BD1EB
BB3AFADD
BD106F53
BD498384
3D5C74CA
3D35CC1B
3C84C3A6
BDC19D65
BD52E2EC
3C940A4E
BD00CF2A
3CD9AB6D
BB9F3D50
BDB33D84
BDF705E6
3CCCD726
BDE3F834
3D492D7E
3D25A43A
3BD309E2
BC2E7641
BDCD16FD
3D2388BB
3D03D665
3D530BBA
3BD18E26
3D9CD62D
BDB3685C
3D3E72D7
BD25A4C9
3D874BC7
3CD370C7
3E0BA2D7
3C569A76
3DB302CA
3C86FA56
BD188F74
3A8CA88D
BD2BEDCF
3D445FD7
BD3E7B2E
BC0D7BA5
BC8A6AD0
BCC4BECF
BC9EFBEB
BAC53233
3CF501A7
3D3CBF39
BD2B4096
BD117B82
3DABF346
3DFBF4F9
BDCBE810
BCED1B0F
3D4E2D44
BDCBA761
BD707CC2
3E029C1D
BC04F064
BC392DDD
3D8B595D
3D196AAF
3D462C4C
BD772E42
BDAC989E
3DCDCB51
BCF520CD
BD0A382E
3D938D43
3D128ADB
BD830BCD
BCEBDF12
BD8D6DF1
3DA132ED
3D4AEC2D
BCACB8B4
BD2A27CE
BC965DD2
3D605803
BDF0850D
3CBD9342
3CD42754
3C241136
BC997296
BBE3FABE
BCD8DB88
BB10BA4E
3B93A440
3DB035E1
3D981DBF
BD6D35C5
BD764BD8
3DD5B8E9
BC9878BE
BC3C651D
3CE742C8
3D9A7A8C
3D2B59F9
3E2FDCF6
3D934681
3CB6CE6A
BDFA5882
3D870349
BDAD6510
BD84EDFC
3DC25CDD
BD1C2EB4
BDAB6983
3D8D0AED
3DEDAB60
BD01A6A5
3CABD0FE
3DAA4E8B
3CF3CB34
3CA4BDD2
BD511910
BD8FF2BE
BD84FBE7
BCDFA7E2
3D283B8D
3D2A8E33
3DA86E05
BD5925DE
BD448A0C
BC7529C5
BC3786BA
BD22DF1F
BCEA6A21
BBE125D5
3DBE8AB4
3D5AF199
3C3099DF
3E00BBE9
BD99A052
3D598CE8
3DC7E151
3D307B39
3DEB2A8A
BD98C184
3E181AC4
3DE335F8
BC64ACDF
3CDAEF25
BDDD84FB
BD6B0361
3D8EC52E
3E10DF56
3DC8666D
BCA4A2C7
3CBF318C
BE10EE6B
BCA07FC4
BDA7BDDF
3B60A36A
3E0241EC
BD291D57
BDBA477C
BD888265
3C7685C6
3D728D15
BDA6C360
BD113806
BD52C808
3D55B094
BD3A8CB9
3C1CD067
3C148D64
3C198361
3DAC0E9F
3CFCA991
3DB906B2
3D5F01F9
3D5BDE2D
BCA3F729
BD9246AF
BD9D4D39
BC05B303
3D9010D7
BB2A5EEC
BCB49528
BD20AEE1
39A62105
BC70EEB6
3CA088E2
BB3E2D7D
BDC7D1E7
3CC324A3
3BB44B8C
3CC4D3EC
BDC61823
3B87DDC9
BC383B81
BDA3CAC4
BCFC1AEE
BDA0909E
3D3C31C3
3C87A642
BDC552B3
BC9EB3C1
3C0551B8
3BB51FC2
3D58BFD0
3B918CE2
3DDCA40D
3DB3192C
3DB39EF6
3D251085
BCFD95B8
BCC55D98
BD879FCD
BDAEC0D4
3B353C4D
BD04676C
BC5F0473
BDA6747B
BD5375C3
BB35026A
3CBF1F57
BCC2A742
BD815E17
BDB1C253
BD8F4E37
BA638511
BCF27604
3D2961B4
3C95B4F9
3D2D4808
BD3F1406
BD9D8E22
BDBCD8D4
BC77D600
BDAC8FB9
3D9F6FA8
3DB8F82C
3DE395AD
3D0F45C7
BCE4BF1F
BD632B3C
BDA96647
3D06D623
BD8CE2C8
3D26F9B2
BCFDDCEC
3D8B3B6B
3D8E2894
3D32C988
BD6B2A7D
BD8901DF
3B8AC5F9
BC94322D
3D84D8F4
3D62B353
3D37C14C
3BCFB497
3D9B936C
3D5D8999
BD1115FD
BCF5E30F
3B075CEA
BD547821
3D685DC6
3C84682B
3D1D69CD
3D4F65F6
BC87320E
BD245C47
BCDF1A4D
3D960432
BD48700C
3D9AF297
3D90FD12
BD8CD972
BD855FE5
3D3EAB7E
BBDAD473
BC99CF32
3D418592
3D274DC5
3D6373BC
BD4C6A49
BD4C46CD
BD4DFF29
BBFADB9D
3CA5CA3A
BB4A1112
3D10B503
3C19472C
BD9D44DB
3D866E16
BDD86639
BC97B853
3D7113C2
3D23DFD8
3D775678
3D3797F2
3DCE87F9
3DF184F0
3D86F2E7
3D6B77F2
3D651A4B
BD6156A9
BD0448B8
BD9A2321
3D957E96
BA84091E
3B081A8F
BDB7D71B
3D94482E
BD490B2E
BC6E90EB
BDBBFD0C
BD87A104
BD3B2713
3DBD7724
3D7DD7CF
BDA35EE9
3D7CDEBF
3C2063BD
3D295146
3D987902
BDC056FE
3DB10B5B
3DEEC01A
BDF75DD3
BD9A1EDF
BCAF32DC
3D1F1787
BDC81A83
BD1D4146
BD3332B7
BD2E1C05
3D50772F
3D8BDC5F
BCCA9C35
3D91C55F
3D942DE9
BB9DE475
3D4F15AC
BD45EFA7
3B67AD17
39EB2D49
BDCA18E7
3E0057DE
3D7D300F
3D0B8761
3D6974C8
3D2B2B2E
3DA74CBE
BCE6E405
3C7035CB
3D9027B3
BC288A04
BD3852B5
BC384550
BCC908D2
BD65411D
BDBAE039
BD12E6A8
3C7C2E64
BD70F567
3BE92417
BDB16A81
BD7C9C09
3D3D84AB
3D94D1EC
BD53F66F
BD937682
BB290DAD
3B84578A
3D483A81
3C20276B
BD4B675F
BB965189
BCA91718
BD02FD70
BAAC7C92
3DC00F36
3D54DEC4
B9983AA8
3DC57B3A
3D92B55F
BD3CB8C6
3DC42C8F
3CF94E13
BDC88AC4
BAA466E4
BDB38986
3CBF054C
BD1359EF
3D060978
3C810178
BD19ABD8
BD8C0535
BD92B0E1
3CB13588
3D8F59E6
3DB27418
BDD93804
BD87BB59
39EAAC28
3B1353F5
3D25B6F8
BDB0F331
3D2981B2
3C84FD2E
BD427C1A
BDA91932
BD96B689
3DD1D2F7
3DA872FE
3C80AF3F
3E6FEB2E
3CD15DB0
BD114EA5
3E06EFCC
BE0F610E
3DB4A804
3DD42938
3DB8B301
BE1D732F
BD97B228
3CA02BD6
BD99A59B
BD1AF71C
BDFBB1ED
BD007D44
3C696FB2
3C92FE45
3D9A3B8D
BD96FE4F
3D742A79
3DE2E760
BE113426
3DAF56F1
BDBBA6F7
BCFAC92C
3DA06A76
BD6B88B5
BC99AE70
BDBF605A
BD9A8244
3D9569DB
BD1D23D7
3D997837
BC7FD89E
3E26E791
BD9BA84B
3DBD54FB
3D226E49
BDCF46F7
3C86471E
BDEAE537
3D1E80DB
3DEF5996
BD93DCBB
BD035B92
BC86F459
3D873102
3DB7DDB9
BD8CF048
BCEB4258
BDDAAF4C
BD899365
3D40F108
BDDB5CB2
3D55E1FC
BD32906F
BC115E12
BD9BC27F
3CEA214E
BA92369D
3D1B151C
BD8F4EF1
3A4AD388
BBCA4C52
3CA356BC
BD9E4A9B
3D896FC8
3D491F2B
3BA59CDA
3D0C0C5E
3D552F1F
3DAE8D44
BD2A6C7B
BDB36E21
BDCC40E4
BD427CD5
3C1235B3
3DB898FE
BD22587B
BC890F27
BC7F0EC0
3D8A9AF4
BD014F1C
3DB99955
BBE24A67
BD71B0DB
3C99DA81
3DC80B03
BD1AF64D
BD36250B
BD00A8A3
3D7F8899
3AA435EB
BD40B889
BD7CDF5C
3DBE4347
3E119950
3DC59E80
BCE2295E
3D48E0AF
3D2039C6
BD86CA59
BD669A14
3E262BDB
BD8534FC
3CE8F415
BD59DFBC
BC9079AB
BD74672A
3D905851
BE0F82CE
BD8F0748
3D86EBDE
BB11273D
3D112C5A
3DB910C5
3BDD94E9
3D6B399C
3C813925
3CC27AEC
3CE52D1E
BDA7DCE5
BDACBF80
3D1EEDEB
3D5BF078
3CCF7904
BD109990
BC3945C2
3C462CBD
3D436B3F
BCE978C0
3CAAFDF3
3DB337E5
3CC287AF
3D8B83F4
BDB0621A
BD22B282
BD1F62E1
BD5CFFCF
BCB47BA9
3D81932E
3D984CB6
3DB6DE8C
BD8DB327
BD95BE0F
BD6838FE
3D318D1F
3C83D2D7
BD95BC12
BD410E9D
3CDB01AC
BD7F6468
3D7D3CD7
3C6F69E5
BD283691
BDA48F3F
BD67FF7E
3C4CFA10
BD90249B
3D2448A9
BD5552F3
BD6B4EAB
3D57AE36
BDAC105D
3D94041F
BD87480F
3D435AD1
3D805119
BCAE0BD4
BDB47D7B
3DA73411
3CCFEEF2
BD32D521
3D2D5B39
3C42E49A
3DB4898A
BD5E4602
3D0BEAF0
3D0C175E
BD1F338E
BD3EBCA0
BD66F200
BD696BA9
BD8F70F0
BD30A6A4
3CC10F7D
BC55B0FC
BB37037B
BD45A44E
BCF0BCB7
BD03346C
BCFC847F
3B7C7105
3CBBBDEC
3D4A0CC5
BCE9AF1E
BD314DFF
BD3A2B27
3D879113
BC7A3581
BD31CEC5
BC96445B
3DA8E3A2
BC1F3041
BD70EAFC
BC86E55D
BD0AE0D9
BD7A9E00
BD8F3F04
3BA3BA67
3D1AB560
BD375854
3D67416E
BD427FF1
BCEEA35A
3CEEE0ED
BD6E2A36
BD997B90
BD30C7D4
3DA37B02
3CF34731
3DA4D9DB
BDB74242
BD33EF52
BC995F90
BD062FB9
3CE2D34E
3D349118
BDA8C2AB
BD6CB7B1
3C38CB55
3D5BF763
3C074713
3D49F0CC
3DDE399B
3D95F0FB
BC49FE84
3D7458D2
BC4F3AA9
3CF25A94
BD1D9771
BDA24AC5
3DC1306A
3D559CE8
BDDCF7FC
BD116D99
3D8AB5EF
3D92A01F
3C09385A
BD0CDE6A
BDB048F4
BD40534B
3D513D80
BD94D2F8
3D49641F
3C0952D1
BCBECF4F
3D9A0E52
BD83FD44
BDBD1E2F
3CEC7D8F
BCEE2A61
BDBDA3C5
3D4286A9
BD012BC4
3DC2BD70
BD8D2369
BD1AF8D3
BE0A449C
3C5884EE
3CB19F36
BD8471F8
3D2E83FD
BD94C4BD
3E2FB5B9
BBF98FC3
3DFA3F29
BD93B11F
399A5393
3D1B5BAD
3D8B37E7
BD567100
3D67FF93
3D362E62
BD0ED5B1
3ACC9C6A
3D394FCE
BD6E1389
BD20E200
3D3A9821
3CAF05EF
BD81D2B5
BD8D03E7
BCFEC474
3DAEFB1E
3D04B6DE
BD5D54CE
3DFA2D01
BD8E2728
BD64352D
BCEA5137
BD7A3DD5
3B6895B2
BD0B0F13
3D9329AD
BD42C7F9
BDC102C9
3DC0AD5A
3C3D9875
3D401665
3D55443C
BD18A1E6
BDB43EA4
BD7D4B82
3DFD861F
3DA1ECD0
BC40F59C
BDD26020
3D5B0F38
BD716DF2
3C7DBF8F
3D1019D5
3D60B5EB
3C6D74CE
3D0641B6
BB0D4B40
BC32FAC0
BD4CE2CB
BC34D9F4
BD8F77DC
3D8FC78F
3DA3CF37
BC1DEAC4
BC0834FE
BC9FF641
3C0FF373
3DE74672
3DDD22E0
BD2AFF46
3BA9E961
3D4B7C35
3E060F9C
3D8CB73D
3D2F6A75
BDA915E4
3D989D7B
BCCF2E3D
BD63D864
BD576434
3CDA8AF5
3BED38BD
3D3D0824
3CEC54F6
3C487FE9
3DE968F5
3D921C0B
3DACA3CC
3DE9F7D2
3D9C24CD
3D4D5B67
BDD04CAE
BC90BBC2
BD063E6A
BDA282BE
3E16CA12
BD15DCE5
3D0A251E
3C78A433
3DC4BC22
BDA6B799
3C25EF8A
3DC7DF0C
3D4F8287
3CC50365
3D884220
3DF4FA03
BCEF2912
BDAE8258
3DE3FB50
3D9938F0
3CFAC45F
BCC146DB
3D678BB0
3DAB03D0
BD721B32
BDDF5CCD
3D09C96C
BD30DEB8
3BE7A315
3D6CFEF2
BD492714
3D413543
3DECFB07
3D7495E4
3DE071AF
3C55CA22
3D772345
BBFAA2EF
3D666BE8
BAA71B60
3D97BA89
3D1D232B
3CA7D676
BCE43759
BD4046EC
BD74189A
BB32B771
3D0EB7BA
BD45A892
BD15D652
3D0E25AB
BD9D23C3
BBB7BE62
3E0A7A30
BD4B08A2
3D63CA19
3CB69416
BDC1B88D
BD32D4CC
3DB97E5D
BD95641E
3C030948
3CB53C18
BCC47AAC
BCBE0622
BD645174
BCBB8B2D
BD0A52E0
3D7FA6C8
BC172E65
3D1EE9E1
BD8E4CB6
BB34E4EA
3DC1B5DF
BCD0F26D
3D8C4A31
BD0243DF
BDD4C7C9
BCD2C0E8
BD18E290
BD617231
3C8F6B8D
BD9AADC1
3D8D3ACC
3DA8C36E
3D0CC820
BC204FCD
BDA45460
BC58BAF6
3D29C20D
BCDAD3BF
BCD81132
3DBB72D5
BC046C9A
BD837706
BD809909
BCFCA58C
3D888A1D
3D76E88B
3DD5A81B
BCB8A806
BCA41316
3DA8D846
3D21ECBA
3CC38326
BB11912A
3E02B468
3DAF763E
BDDA89FD
BDBE87BE
3DBC83EA
3BE56475
BCCBB7DC
BD80E8F0
BD20FB50
BDC5C7D0
3BBC947D
3DDA39D9
BCC117FF
BD54499D
BC0642C1
3D7EAE48
BD779099
3CB8E00A
3D7A0F5B
3D88EB44
BDA5CA67
BD0A3331
3D9B9877
3CD15E67
BCCBAE9A
3B89F20F
BD61E693
BC7A0EE0
BDC80E49
3DEAD0C6
3CC42AB8
3BF86835
3CF698F8
3C9E9DDD
3C726606
3DADDEB7
3D3FF4A2
3D9DF9F7
BCA2EB25
BBF4EDC5
BD217A20
BD948539
3D92898D
3B4ADD69
BBF0DAE2
BE0726A2
3DB06512
BCA7DACF
BC5F9C1E
BD4E66B2
BD66C901
3D9D8577
3D56582A
3CD977D8
BC826964
3D440AD0
BD8A87F4
3CC24AB1
BD0011D4
3D9F6456
BC633C41
BD807F95
3D4F90D7
3C4F5DB7
3D569698
BDBA8C08
3CFA38D2
BDAFA272
3D2AE9B6
3DDE4BA1
BC853D44
3D4E19BE
BD9521C7
3D3E927D
3DB88B69
3DA7E8B4
BD837E93
BD26C45C
3C32D689
3CCE919E
3D4E165C
3DA83B89
3DA24CE9
3D16FF46
BBD11EBE
3D40BD09
BD7EE516
3D87F6E6
BB8123B1
3DD60D08
3D662335
3B9C9C8C
BD877E20
3DEA5D4B
BBA4D4AF
BD19876D
BDBDD44A
3D61BD61
3D8E48C8
3D1A8409
BC21D9EC
BDA16D4F
BD102803
3D9078FC
3BA94D12
3CB0172D
3DAC263C
BD6224DC
BD3641A3
BBB408FD
3D08362D
BC85E9D7
BC1125EB
3D8621FB
BD81E35D
BE1100AA
3D4C7AA5
3D93F72E
3DE600BC
BD6FD827
BDD5B157
BB19E4CA
3D0587B5
3D2539D1
3DCA18FE
BC93EB3C
3D1EBBDF
BD2CE7DB
BCA4C6BD
3CF14D24
3DAF2303
BCCA8439
BDD8ABCB
3BF354F2
3D15033E
3DDA7718
3B15D51D
BC9CEE1F
3C313732
BDAC3B25
BD6A53CE
3D3C1966
3D7C7F1C
3CB1B36A
BD41290D
BD70DACD
BD23CAD6
3D0148C6
3D5B78B7
BD0EE4B9
BD99718B
3D1F19F3
BDAD1D3B
BB69326B
3DF6A3FD
BD9ADCD6
3C3E16C7
3D0A35C4
BC4761C4
3D4965F6
BD872BEC
BD370914
3D8A55D2
3D9A92DC
3C9A344C
3D0CE2B8
BBB65B64
3CAC613D
BCF058DB
3CF2B533
BD3C0324
3DB276E1
BC23D320
BD7C0CCF
BD68C193
BCC6BDA0
BD8EEAB3
3CF8FE2B
3D61F77C
BD32C9BD
BBE32098
BD026D38
3A88CC0B
BD791FF3
BCFBF80C
3E0380B1
BDB45696
BD689FE5
BD846CEB
BCEB8FD8
BBEDD6C7
3DF7B032
3DC8A4DD
3B8AF1F4
BDDC03A2
BD58684C
3D709A88
BC3F54AD
BD4E0AD0
BD922078
BCE48637
BC4EA821
3C8CB94A
BD4FE3D4
3D82829D
BD86B293
3DDB43C0
3D39FD96
BA9C572C
BCFDA664
3CC9A58F
3C7F57F6
3D9DE00D
BD69D05A
3D715D6D
BD5A380C
3CEA5F28
BD85C7FA
3D3F6366
BD90A5AC
3DA20AF8
3D5B1235
3C9998AF
BD0DFC81
BD13C963
BDAC8E05
BDD17A89
BB40EF87
3DDD5B0B
BB3DC0ED
3D278011
3D123893
3D460C8E
3B9F3A0B
BDE026EE
BD716E62
BDB93041
3B923CFF
3CA665D0
BD7BCD25
BD782B73
3D5066C6
3D815955
BD80CCB3
3D343E21
3A6949B3
BD7EE6AA
3D372214
BD8A1533
3D7DE465
3BA71A1C
BDA39754
BCB23D43
BD7ADF5C
BBF533C9
3AE76E80
3D576560
BD03AC9E
3D9F9FF2
3CEFFE98
3D42EABC
3C91598E
3BCA83E9
3CA5262E
BC4E9CDA
3D9DFAE4
BD0D439C
BDC2FB4A
BDA53F40
BDAC70BF
BD204398
BCE49AA6
3DBE58C0
BD3989BE
3B666607
3D6D4A91
BD93420F
BD69BD65
BD98F08E
3C017B68
3DAE4E57
BD48170D
BCA82D4D
BD7A8D21
BCE40998
3DAA8F30
BD352F08
BCCF06D9
3BA860DE
3D89B0C5
BC9A0DA0
3C978572
BBF37F59
BD1B1930
BD4FB833
BD23C191
3D440A54
3C85DB29
3D9820AD
BD479716
3CDA5A4F
BD9C943E
BDA513D9
BC59827A
3D728411
BD91BC59
3C56A883
BD718099
3B14E1AD
BD6C816C
3C193EB5
BD21301F
BD2E354D
BCC23B5D
BCC93AE1
BD924A4D
3CE0B973
3D6BA2DD
3DA2EF6F
3A9D4D5E
BCD7214D
3D9DA0E1
BD972D56
BD3A2BAF
3D4FF2E0
BC855713
3DABA597
BD10D42D
3CBB2025
BD176C9D
3D34D115
3DAACB48
BD83F246
3CF749B2
3D179D68
3D551DCF
BC8F668C
3D80BC86
BDB5DE16
BDADEA09
3D435C7C
BDC3EBB9
BC615806
BC1C508B
BD112439
3DBDAACE
3DC5E9A3
BD8480D4
BD8E4E85
BC4B9C5C
3DAC13AE
BD555BB8
BCCEF5BE
BCF05F8B
BCD87AE4
BDBFB559
BD95DDD7
3D9F2A8A
3D8AA9B6
BD65C089
BDA8B788
3D5CF4F3
BDB7AED5
3D74C59E
3D5A2F68
BDA52605
3DA981C8
3D382E11
BDB496DD
3D826B3A
3D9C41F8
3D4009FF
3D914948
3CB6F809
BC8E62E5
BD353737
BDF76701
BDFD2D13
3D6B8BCA
BCBFF529
3D682422
BC211405
3DC8B4AC
3C7CA147
3B8FCD4A
BD5DFA7A
3D45B31C
BBB55198
3CD4933C
BC60F6BB
BDA3355C
3DC9E668
3D74CE18
3C86D30E
3D8C9030
3C1512EC
3D08A87F
3D6D995E
BDA08BF7
3D1C0DB5
3C16783C
3D8DC0C2
3C2442B6
3C5DC15C
BD6E7B18
3D2EB4DF
BC9B18E4
BB0AEBB4
3BE71BBD
BD341D73
BDA6CA56
3DBD76B8
3CC22053
BD909B2F
BD9208F6
3DA7436A
3D945A62
BD34C047
BC8EBB8F
3DA1F25D
3C6CA5EA
3D89FF07
3B6E35C9
3D817D1E
3D89D7FB
3CAD2A74
BD50B64A
3D75ABE6
3D66804E
BD23337A
3D8B6575
BD249E19
3D137F6F
3DA0774B
BD84B32A
3D823FC2
3DDD115F
BCF0FAB4
3DA42E34
3DAEBF0B
3CCEB6B1
BC436F10
3C702C25
3D41ABE9
3D548C7F
3D8170BD
BDF7ADA0
3D062273
3CE23BC8
BD9A6761
BD832668
3D11261B
3D4DD7A0
3D81AE47
BDA6B547
BD4245BF
3D593D49
3D1398FD
3C293209
3D69AD74
3DC2FB6E
BDDED205
3C330A63
3C82C449
BCC49DB8
3CE72DB4
3D45E367
3CC37A42
3D3619CC
BD84F27E
BD4A3C47
BD578E3D
3D8A00A2
BC9938D6
3D329398
3D8D4163
BC9D67B2
3C5CA663
3C3FC62B
BBAF8EAD
3DB17EAE
3B2FA133
3D669F49
BDACEC06
BB91F61C
BD9C3F85
BC9F5E4A
3DAFB827
BD59C5E2
3D8A4B09
BD1BF016
3D746C43
BDB550E0
BB735E4B
BD0781A7
3DB2FB6A
BD8898FF
BD725C18
3BDFF8F3
BD0641B3
3D9B4B38
3D7E1A90
3C212350
BD81D643
3DAC00DE
BC8859BA
3DB723B8
BDBF8A33
3D1320D5
BD04BD94
BD0418D2
BC64BD23
3DA8D238
BD74BDB5
3D5E73A8
BD0F4ACB
BBF0CBBC
BDA37FEE
3D8FA19C
BB64B5E6
BD803318
3D775649
BCAD5724
BDB5E87D
BCA6B198
BCA5FC71
BC352061
BD50858A
3D696B3C
BD59686B
BDC3821A
3DA7780D
BD8019ED
BD037A85
BD3F1565
3CEF6A00
3CC75B48
BCE034E1
BC2119EF
3D080A59
BD04D9D6
3D0FE144
3C2C867D
BC6932D2
3D793105
3CCF6A24
3CDDEA28
BD705623
BB3169CE
3D57B038
BD76D2F1
3D20A27B
BDA52E29
BCFC6573
BD95C3CB
BD5012F8
BD8566BC
3AA7D344
3C979528
3C588928
3B223615
BD68ABC3
3D94EEEF
BD80EFD7
BC022F44
3D00B4F1
BD0FA8BC
3D05F4D8
3D676431
3D6DC195
BDA20D3E
3D5F8549
3C511953
BD0CDF55
3D4A231F
BD040A4B
3D4512ED
3D550578
BD20D631
BC9F09FD
BC623374
3A36C5CA
BD488439
3DA1B156
BD31C181
BC9B44F5
3C7954E7
BD4CDB55
3CB40220
3B7588A8
3CE13C40
3D53A9C2
BB6F3D03
3CB5C11D
BD8B7E4E
BCB3B227
3D00D769
3BED817E
3D248156
3C30D25D
BCAB5099
3D213D9C
3D6BF694
BC9DAB0F
BDA17EA8
3D554A56
3D79B8DF
3D60D2B3
BD7C1AD4
BB2DE624
3DA20B4A
3D24ABFD
BDBA532D
3CF7973E
3E0C5613
BCF0F8C7
BDA6D209
3D8A5546
BE085BBF
3C10C339
3C4FA67F
3D3C1399
BDC71C26
3D6163BC
BCFF7729
BD56BEC0
BD1531DF
BD5BF686
BDC245B9
3CEEC87A
BDC719F3
3DADD348
BD82E640
BCC642EA
3E014DFB
BDAEC6A5
BD27DCBA
3D8BC867
3D247090
3DF0864A
BBA51F8A
3D433E5F
BDEE8F8F
3B1A96B7
3D1A2DF3
BB6332C7
3DF0FAD4
3D3146C0
3DE940C9
3CDAA0DC
3A9E1F99
3D5C6326
BDAC98D5
BD10F4BF
BD3A0CB6
BD4BEED0
3D7E4D0E
3D178081
3DE01065
BD5DC404
3D97E89A
3E44A710
3B4634C3
3D8B3E26
BDFED080
3BB51FDA
3C225B5E
BD3B297E
BBD6C058
3D2BFB95
BCBFC131
3E074AAD
BBA9DB4F
3DC16AA1
3C23823A
BDB4E952
3C221824
3D26C8AA
BD6884B5
3CF8E436
3DA2C92F
3DD3ADBF
3BDC71BB
BDC85E4B
3E108E4A
BD3A4120
3D75A300
3D193240
3D7A9BBA
3D87E5D7
BCE4083C
3CF02783
BB57FA06
BD9786AE
BC8C938C
3DFC74ED
3D59CF61
3D6E821B
3DC85E82
BD872584
3E01F853
BB807BD7
3C9ED2B6
BD17663D
3E003255
3C264513
BD984539
BD06C0F0
BD9DB181
3E229C64
3D8AE7E5
3C9802AA
3D22737A
BD9D994B
3D3F6C58
3C65A1DD
BDBDAD6B
BC79289A
3DE93E7D
3DB12C62
BE258883
BC38988E
BCE1AAE5
BC907759
BB9F04CE
BDC0DF6D
3B6565D2
3D661BE1
BC458AFD
BDD13181
BD562D9E
BCA95E46
3C1AC509
3D09B6BF
BD67B772
BC27A3D9
BD80B0C8
3CE4289D
3D932599
3CC640C1
BDAE5066
3D450090
3DC33F51
3D965B26
3D92A7DC
BD6CF73D
3C407F23
BD93A824
3D92694C
3DDBA818
3CCFB196
3C5005E6
3D832326
BD93A48F
3D5FC30B
3D2CF200
BCFBD7BD
BDBF8B5D
3DE0316C
BDC0D129
BD7F11E4
BD884DC2
BD50BC36
3D1871EA
3DA56364
BC4F1234
BD0F312D
BD8D4E07
3D9EE4F8
BD855AAE
BD98B465
BD503FFB
3DAD7044
3C8CC9C5
3D560DB4
BC70BECD
3D9892CB
3D72BAE6
BDDFBC4C
BD2147D2
3CAE6C95
BCF4EA76
3D83199A
3E10BCFB
3D3E8226
3DA99165
3CA5B37A
3D8C3430
3DA873E5
3D787328
BD2CBBF6
3D532BC7
3D0A3C53
3D67D965
BDF7DD3F
3BC008EA
BD03F4F5
3CF97F35
3DA01E2F
BD5BE1F4
BD082449
3D6D47BC
BD247765
BD3E4FEB
3D5D776F
BCA5987B
BDE70D0B
BD8D22D1
3D717A46
BD4BE70B
BA86A752
3CF98B75
BDBC873D
3D9C4111
BDBE9F1D
BDB574C5
BD154615
BDB3C971
3D43F5D7
BD0051BD
3DA71663
3D10A949
BD2E4A36
3DAFED78
BD39FC56
3C952D31
3CC1B6E5
BCCD5DE7
BD9813D5
BCA27083
BD5CEC71
3CC4FA3E
BCBA0F19
BDD3CF06
BAD498C9
3DBFD6C9
3D6BB80B
3CE014D8
BC6AD820
3D011A6A
3D897F48
BDB93700
3D2166F1
BDCABCA0
BDC8F942
BD332B45
BD36DA5D
3D6B5656
3C86E8A8
3DCFA430
BD88A221
3D8ACA8E
3B0DF753
BD5E5FC3
BDEF1437
3DD67F70
3D3DF26F
BDB60636
3DA63C0B
3D259106
BDDB95B6
3DAE27ED
3E2EEE82
BD45BC38
BC850E52
BC95F2C2
BDB6A732
BC42CC0C
3CB24218
3E1CFEFD
3DBF1DD0
3CC74520
BDB8B1D4
BD7072CD
3D1FAA07
3AD32EF7
BC6BCC72
BDB072E2
BD6894D4
BDC8890F
BD204CEF
3D8DAAC5
BD4BF10F
3DBB5EFF
3CB03B5E
BDC92831
3D1EE25F
3D188574
BD15F34D
3D08B8B7
BD1E8684
BC471278
BDFDFD6A
BDA0DE07
3D9751F7
3D7FF4CF
3CF81D66
BD65549F
3D33728E
3C8F7133
3D4D23D3
BD96DAE9
BD73F2D8
3BA58AA3
BADDA354
BD8B4F4C
3C77328F
3D6D6C0B
BD99EDCB
BD54B6B9
BD647BD8
3D4EA42B
3CB21F53
3DC4BCE4
BD60C150
BD69E433
BAE61194
3DA75462
BDBD49BA
3D61E045
3CD794B3
3CCF1DB6
BD8A37A9
3DD09D39
3D2F8F8D
BD8C1007
BD43B405
3D8C5198
3DDD2732
BC66D570
3DB45FAD
BD9DB1A4
3C1E640F
3E26D438
BD2B1AEC
BCEF9F6F
3D01650E
3D405649
3DBF3CE4
3D84260B
BC71AA63
BDC2F12B
BDD10675
BCA0B375
3D88B178
BCD91545
3D08CFC4
3C72C3E7
3D29363F
3DA85A34
3D4BEAF2
BD0BCA7D
BCD42531
3D122A56
BD89BED3
3D6D98D4
3D12B626
BD809AD5
BCE0593E
BC98B5A2
3C160C2F
BDB31556
3D670AA1
3D9F220C
3DB96F21
3BC246F7
3D860609
BB2FCDF0
3DB1699D
BCDCD81F
BC7E96A2
3DD0E516
3C33E1EB
BC8D95DE
3E0DF639
BD9413DF
BCF8092B
BD381BC5
BDF49BE6
BCF9B94E
BD98C649
3D813327
3D9991FA
BD6EB3B7
3CEC30C2
BBB12FCC
3C1D02B6
BD693AF1
BD8E6D0F
BD66587E
BDA0013D
BDF210B7
BD3F339A
3DA7EAD1
3E0410A2
BD0B9A84
3D7A0340
BD310F32
3C992A2B
BD9916CB
BD5DED3F
3DB81BB8
BC85DEB0
BC77AF75
3CFA7252
3C0716AB
3DA16F3B
3D942365
3E288AD1
BD136DC4
3DDB2FE0
3D4F19F3
BDE4A731
BDA469A5
3DC13D92
3D5B7D1F
3DAA6898
3C138683
BD8AE146
3D8555BD
BBA09B34
BCA00DAF
BDA0C7B4
BD3ABC85
BCA14099
BB3867A1
BCD78DA5
BC2CF42F
3D05CEAA
BDC768E9
3D2C9836
3C131C4B
BD7D6C5F
BCF297D8
BDBC71C3
3C1E4631
3CD91AE4
3DF0423C
BCAF952A
3C9DAEB4
3D258D58
BC8D2779
BD7ED302
BD676559
3DC5BD80
3D8712D3
BD8E7F2E
BD9F3DEB
3D9C26A2
BDBE65D3
3DFE8ECE
3D2AF8E7
3C21A3B0
3DDE79E9
3CDD2045
BD598FA8
BD9012FD
3DBAD759
3DB19301
BD9E6FDB
BD63802B
BD025FC0
3D8D1F25
BD296041
3D685341
3D4B7227
3D8436BE
3DF419AE
3D67B2E0
BD014116
3B867DB9
3D5D46AE
3D621336
3D08E52B
BDEAAF39
3E09FB2E
BD0413C0
3DA67FAE
BD832F19
BC4C7A6A
BC865854
BCBB3774
BCF3E2E9
BCCA6F55
BD558CD4
3D809702
3CA6AC90
3D842E98
BC0A8993
3A2B243F
3D60B463
BCF3E845
BDBD0F9B
BBD4D451
BCE1BEE4
BD1C99D7
3DBFCA70
3DAA56D1
3D12B36A
BBCD4310
BC453684
3D1719C2
BDC43366
3D83AB1B
3AF1096B
3D8509B4
3DB52445
3D805F97
3E2D832B
BDE36C91
BD99B6F1
3DC47F22
3DF6DF6C
3DC4EB2B
3D0E431C
BCC9A67D
3D53BF31
3C174877
BDAE1738
BD209C2E
3D1E03B6
BB500CA8
BD5FED6F
BD4F3945
3C491455
3DC57741
BE2FEA99
BCE71E92
BD605135
BCA45D88
BD123908
3D244CC7
3DEB327A
BD8532B8
BBA387D8
3CBDB98C
3DC50107
BDB60108
3D6C3230
BD1B0469
3D55326B
BCB92A87
BCB73B8D
BD9244A9
BC40B497
3E79A9C1
3C015F7E
3D84911E
3DCDDCFD
BB683C86
BC408DA0
BD958F22
3DEB5956
3D725936
BD6DECB6
BC9AFDF8
3D9BA070
BE14285F
BC039192
3C86E103
BCF59656
BD4EE041
BD488F54
3CA5D883
3CFE212C
BCA83785
3DE94462
3DF9A401
3AD0D613
3D985AAB
BD051020
3DA390D1
BDB0BE04
BD823CA2
3CAAF496
3DF3A5EC
3D6FD5CE
BD25F006
BC7C1241
3CC323E8
3DFF76DA
3CDDDC45
3D89FCDE
3CBE4430
BD64F8A5
BD82A115
3CF18EBB
BAA871FB
3DD4CF23
3D3EB881
3D881A0B
BA61BFD7
3BE32B37
3CC73192
BD1BA99C
BE293B87
3C4A40D2
3D6372ED
3D60389B
3D2D6110
3C8C462A
BD553149
3E2EDFC8
BDB0D2B7
3D575612
BDCBAEC2
BC6DB37A
BCAB1026
3E2AB0ED
3D325034
3BF0F115
3C2F5E59
BBB5783F
BD9DACE0
3E1B0780
3BD32DF5
3E2D9D8B
3DF95046
BD747827
3D4A871B
3DEC371E
3D6E91DC
3B1FC87F
BCA9A1EF
BDAB0E4E
BC19A0B0
BDA63673
3DE35331
3D1D34ED
BDB1F1F9
BCD5634F
3D8BD8AA
3DEE7247
BDE90E09
BD8B5237
BD9B4C8A
3B6BD215
3DAC127B
BDE2A504
3D7C9188
BC8600BE
BCAC98D3
3D81499E
3D4D1C5E
BC5FAEED
BD170D6F
3DB05F07
3DBBE665
BD60B8B9
3E116FF3
BD68E310
BD983AB0
3C8FB4E9
BCBE2F51
3DA8A81D
BDA46863
3D4EF20D
BD62C4B0
3DA317AC
3C2423B2
3C950FD3
BDE260AB
3C838842
BDB15F8D
BCCFE51D
BCC8B609
BD9AB575
BDA15B50
BDBD57D5
3DBC81F1
BD5643CE
BDCB7B8D
3DA041C3
BE180A25
3DDB728A
3CF38BD5
BDC8108B
BE6C362D
3D7842D5
3D788A31
3D85B9CA
3E19F1B3
3DBB08B4
3D3DB291
3B834103
3E0A5E3E
3DD67814
BD9684D1
BD263103
3E117B0B
BCBFB5AF
3CDF8A27
3D976CC3
BDB2ABBB
BCAB9940
3C7F7939
3DCEAE52
BD058241
BD6DC896
3D3F4D50
3DA8AE9E
3E09959B
BD650BBD
3D045D33
BD0F86F3
3B96DD37
BD39965D
3D971129
BD44BC70
BDFDDDEA
3E3CD065
BD3991B6
BD93F9E4
3DFADA94
BCA9A794
BD8008CC
3DA06457
BC641455
3CD9D681
3C603948
3D5BF1FB
3D9E3394
3B7FEE43
3CDF3997
BDABE96A
BDB350AF
3D6BE4E9
3CE018ED
BD2B0460
3D2C3559
BD2B1A1C
BD488496
3DBDC70B
BCC8F393
BDEFF880
3DCA6C43
BBDDC32E
BDDAE5E7
3BA061AC
BDC8A9D1
BD56A2DA
3CCFF307
3DA5D45E
3CC3FE42
3C86AAB4
3DA66B92
BC6D9422
3C0EC82A
BD82C20E
3C1F237A
BD88BDFF
3CF709C2
BCB7CC9D
BC85B920
BBE7831E
BDBF3150
3BC41F33
3D37488D
3D5D5968
BBF0F408
BD32FF7E
3DAE59F2
BD668507
BAF80831
BDE67DEE
BCF36C28
BD3C1321
BD8F39D9
BD5878B0
BD17DA53
3D785C27
3D1FFEA8
3C802CA8
3D77D246
BC24E6E8
3D580769
3C413E2A
BD9D5C53
3D8D64AD
BD701EB0
3D722389
39763B6D
3C109952
3CA1E194
BDC17D3D
BCA6C9A3
3D747A46
3D39F941
BD495F2E
BD8BC397
3DB3D6A0
3DD41DA5
3DB17BAC
3DF225D2
BD5A006C
BDA20853
3B4924D1
3E05A899
3DA14091
3B0A2D36
BDB9A317
BD417849
BD693FE7
3D804767
BB824CF0
3C49F427
BC2DA7CE
BD646800
BCF86C47
BD253808
BD3BF100
3DD9A1EF
BC56AF31
3D29844F
3DCFE964
3C955379
3DAA32B8
3CCFB0BD
3D9484C0
3D1A79C3
39920432
3D838F4F
BD22246B
3D457457
3C0699E5
3A0EB3C2
BCDE317A
3CBD754B
3CC02251
3B778B79
3D283A46
B8EF5BA3
BC94D372
3DE3B3B3
3DBF1D5C
3DEF2940
BCB40F82
BDC7AF8C
BD892686
3A963AD7
BDDC5319
BD59A034
3DA36A59
3DC690B3
3D28642E
3D03D66B
3C8E0807
BC9CFC96
BCC710E5
BD93A749
BD2DDD70
3DB2484C
3DA7F173
3D2B5A15
3DA53B7D
BDA77C74
3DDFDABC
3DB75277
BC940864
BDF9EBAC
BD6A4166
3D8DF4F2
BD5268F2
3BDAE487
BDA2D22E
BDA2622E
BC42A2C5
3B950C6D
BDAC9C14
BC76CFF5
3D0AD326
3C56083C
BE027AB6
3C89F569
BCFDE740
3CC270E9
3DA90C86
BD46083C
3CEE4068
3D90FC3E
BCF576EA
3DF599E0
3CEB28E9
3D5D6FF3
BD4BA629
3C9E962E
3DDB6B5C
3D46F4AD
39A65724
BD208B24
3DF6D051
3D369029
3CC3D9CC
BC7C534E
3D0EE3A4
BD3A14A0
3C0187B8
BD9C4E55
BD805CCE
BCF77333
BCE8D40E
3C816550
3D83680D
BD39B7B2
3D920E8B
3D28FCD4
3C33D509
BD828D7D
BDB0F59F
3D01655C
BD88EC49
BD0A6708
BCE6F6FA
3D26A6B6
3D4053B5
BCCF1EE5
3BB59C97
3DDB1668
BD2672F4
BD61852A
BD88463C
3DBED5FC
BDB276F6
BDB79283
BBD004AA
3DB69E92
BDC357A8
BC92D941
3D299467
3D0F2A07
3CFACFA1
BCA741BC
3C72AB11
3D83A103
BD35AE7F
3D84E13D
BD837EA7
3D9A94B0
BB6439EA
BD5974A5
3DD320B0
BD3C66B1
BDCF80FB
3D52EB79
3DAA5C99
BD5E4D35
3D1B04D0
3E0FA8CA
BC36C845
BD3481F0
3DC08A05
BD557F17
3CF8FAAD
BDB2AE3B
BD0016CC
BCD86BB9
BDAB6245
3D070656
BD7E091F
3B8FD4C8
3D2131B8
BD9A3AB0
BBA70375
3CC9EF30
3D16A8DE
BD383AAF
BCCFABF8
3D8E2A6A
BC196F32
BC0F9164
3DA24397
BD991AD3
BDAFC029
BD948AA8
3DA603C2
3CEFFD90
BB4239B8
BCE74CE0
3D11C7D1
3CE26BCA
3DB9454F
3D3F606D
BD5919D6
3D931E23
BD8596E7
BD37DEE4
BD23C4ED
3D0C2AFD
BD2272B7
BB9C390A
3D0B301B
BD890BBF
3C932EA8
BDB67982
BD8C5A67
BCE8693A
3D022731
3CBFE45A
BD8E3F4A
3D007EEE
3D93EB4B
3DAB735A
3D19CEFE
3D8E3C5A
3DAABDF4
3D971853
3D96C734
BD082258
BD6B791C
BD2A3922
BA2A1513
BD9B7A9A
BCD219C6
3D9F0A0E
3D0DCC1F
BDC76B2C
3C81B5AD
BC1A7BD2
3D1E577E
BD0E0319
BDA18041
BD6653E4
3DAA7894
3CC18164
3D8F9067
BD93E82E
3D67463E
BD8DC976
3D23F9EF
3D269806
3DA8ABCE
3DA19DCA
BD9629BE
3C9EDFCF
3DB4FA50
BDC081A5
BCA9CA19
3DC096E7
3D3D3E54
BD9E2450
3D0AE7AF
3D0A84BC
BD618AA6
3D8D6486
3C50691C
3D96E7BA
3D8E80FA
BC7B7B96
3D1463CC
BC1556B4
3CCA5EF6
3D596F0B
3B1BBEC2
3C8D39D0
BDBAA2E8
BC1C5597
BDA10809
BA919ED3
BD8F1AFB
BDD5225D
BD4EDC6F
BCF34560
BD98E8F9
BC326F26
3D3BE0C8
BC993582
BCA340F6
BCD5EA36
BB72DE2B
BC0701C6
BD575797
3D0BAF61
3C6A7B1A
BCA25071
BC7114BD
BDBB84AF
3D48058F
3C3A935D
BD2A1B28
BD89BF5F
3D6F8184
BD8F6EDE
3C206D71
BD97A86C
BDCC0FEB
BB6F0984
BD5689F9
3CC9B391
BDA8F0A7
3D959E22
BD35635A
3DC6657D
BDB78B6E
3D2AC2D7
BDFCB0AF
BD286A3C
3DBE3822
3D54300B
3D93B87F
BDA672FC
BBFE599C
BD6AEB84
BD762152
3CC92C15
3CE57EC9
3D202F9E
3C665D3C
BC6296EB
3DABEE8B
3DD11D37
BD3B92F4
3D868C2A
BDCF3CF3
BC994C0F
BD59BF7B
BD23EC9E
BD621B1C
3D240FA6
3DAA3BA6
3D973D88
3C85A014
BD6BF33D
3CC2491F
3CA06E0C
BD5C6C9D
BC6B6998
BDD99FEE
3AF74539
BA7524EA
BD553521
3B8F12DA
BDE19B76
3D4EE812
3DAAD124
BD826DA1
3D5BE56F
3D32CDC8
3D9FFC7C
BDA9F0D6
BCEEE440
BD3F8DA4
BD443A19
BCDC96A1
BD9CCA2F
3DBA7205
3CD62A8F
3DCDBC1F
3DABDBA5
3D8ECE93
3DC73F6D
3DA2342F
BDB3622B
BC7DD6E9
BCCF7517
3B57CCA1
3C524B99
BC2E07B0
3D56B6FB
3D892B7F
3D3E1487
BD30243D
BBF6DCFB
BD4AD127
3C82B853
BC810325
3D027C3C
BDA1BFBC
3D95E8A4
3D6AD9C5
BD485D0D
BD1460A8
BD0F242E
3DA004A3
3D01B2A9
3DB4DF15
BD156BA1
BD414EE1
3D429516
3D08ECBF
3B41F2F5
3D6D4D53
BD84E4C3
BD851784
3D8E00BA
3D2E30B1
BCACE32A
BCA16F51
BD9FE0D4
BDB3879F
BD92D045
3D035AEC
BD724B7A
BD4F0E62
3C051475
BCE12EFA
3B18D046
3CF030D1
3D10FD59
3D867CA0
3D867302
BC519378
3DB12F85
BDA1BD28
3AD0868A
3CECA17A
BD40B8AB
BD4E6553
3CED3C39
BDC330E0
BC7F8C23
BCAFF5E5
3DD7FF9B
3D4A7C5B
3D594BEB
3DAF8A80
BDA79C40
BCA22D50
3CF471D3
3DD899A2
BD532F84
BD8BC434
3BFAB18C
BD0B7C05
3CF7272E
BC478369
3D802E6D
3DB2CB84
BC8F4CE4
3D846C8F
BC1B5489
BDBE0FB5
3DBE12EC
3ACFCE38
BCCAFD67
BDBC20C4
3D8F3E09
BD684BEF
3D48689B
BCCF21BF
BD12AE8F
BCA71506
BD8D9F28
BD9F43F9
BDA19471
BDA00617
3BB98746
3C9A8F80
3C62D5CF
BC7C30E5
BD4E3898
BD582144
BC4B256B
BC0A3F0C
3D5BF7DB
BC25CEBA
3D014E7A
3D1D2AAE
BD903FFE
BCEE06B9
BDB820D5
3C3D88B5
BD49E20B
BCDAD54A
3D050487
3D9B84E6
BD139A55
3DA5359C
BCB02A26
3DA9EF59
3D091DAA
BD54FC27
BBC26348
3C1DFAF7
BBEB43BB
BD8E1718
BD9DE568
3C5049BA
BD980EEE
3DA5459B
3AA0D0F9
3CE8BEDC
3C34A5A8
BCDF5A41
3D9CD779
BDBEF9E0
BCB9411D
3DD93B26
BA968D29
BD9E067E
3C038EBA
3D12BDF5
BD3D315F
3BE55EDA
BDC871AE
3D4C5693
3C945271
3BB005FF
BD8080B3
3B575E9D
3DCEE7D5
3D9A75F5
3B457734
BD96A1D3
3D197514
BD680A7E
3D84B7A7
BC6A87D2
3C8DC536
3D533612
BCAFFC3B
3D8EF255
BD8C5DC7
BD81C0E9
BC311163
BD8958F3
3B424697
3D2114AA
3D9B3BD8
3D46046E
BBF67CEF
BDA30B9D
BD8FCD66
BD7DDACA
3D8D1DA1
3D1916C3
BCC88ADF
3D116F49
3DA8ED4C
3D66C532
BDA6AC52
BD89CC24
BDDA53FA
BBE924F6
3B268422
3D0B0483
BD5ED171
3DF88BB7
BC4AD5B2
BD79BB28
BD3A556B
3D8D3CF8
BD87531D
BD4A0DC0
3D502879
3C34CF29
BE01DD5C
3D9D1507
3D5753E8
3D935239
BBD0CB38
BD3F8524
BD58A15D
BD94B866
3BFA291F
3DA55D94
BD9FB4A9
3D002C4D
BD85A7A6
BD932E7E
BAF48BC2
BD7788CE
BDEB620B
3D9624B2
3D35A034
BCDC90E4
3BEA2815
3DA9CE0C
3D37CF13
BD5E9F55
3DC47AA9
BD601E2A
BC9AB908
3D3C3D36
3C9BCB48
3DE9C87B
3DAC6444
BB43AF8B
BC8DAA01
BA487C6D
BCC428B7
3C944BA7
BDA02E66
3D0A513B
3D5C3A48
3D32E342
3CEF1F2E
BD870150
BB7B926C
3C9DC3FE
3D6F259D
BCF3D332
BCD04D9B
BCF13EF9
BDBA65F5
3D8AD827
3D60D095
BD86D5E9
BD200C29
3D973A8B
BDB7B5C0
3D36FF4E
3DC70729
BC8E75D5
BDA5F93E
3C8DD036
BA9952E9
3C87081F
BCD20F4A
BD521E85
3D60BE03
3D7828A2
3D9A88FC
3D26775C
3C923F11
3D5DCF2A
3D25BD12
BD90F274
3CF1DC9A
BDCFD771
BBF63B6D
BC573932
3D5DA15C
BDBDE029
3D0289FE
BD6EECFF
3C65BC8C
BC4C90DB
3D9DDA13
BB508C91
BD553D3B
BD604AFB
BCF1425A
3C426642
3D72624E
3D2042BF
3DBAC7DF
3D919910
BD290DE8
BD1CF7A6
BD620027
3DC52D87
BD7F1BC7
3D33703D
3D404256
3C90E047
3D855DBC
BD1607F2
3D4B9AE9
BDD717F6
BD11340A
BDA5AD5C
3CA6CF7C
3DA8A2EC
BDB2FF12
3D2F014D
3D5F38E4
3CEB2A9D
3D0549F2
BD9DB959
BD4AD679
BD528F7C
BD217EBB
BD2C09BB
3DB929C7
BD9E781C
3C3D5DDA
3D940C5E
3D83BE9A
3D946D75
BD19AE20
3C233CDF
BC891E76
3DDB050B
BC969343
3D906901
BDA3297E
BBE22199
3D158339
BC0F9751
3D23537C
3D907817
BDB73F2C
3CFC8F44
BAB22920
BD958D90
3D9B26CC
BD13F332
BD59A071
BC9DD719
BDAFE51D
BC6FBBEE
BD33E3AF
3D2CD059
BDB86314
BD72D6E0
BD9349F9
BD778925
3D8A181E
3DBB4406
BCA96E39
3D7E8564
3D2F1F2E
3DAE50FC
3C8C785E
BD9CD09B
3CE32965
3C2E6EB4
BBAE0643
BB74E797
BDE6FC7B
3D4B7879
3C578059
3DBFC3F8
BD75E6F4
3D1662EE
3CD6B397
3D0D0616
3D6742CD
3D0C4456
BD98002A
BD25C1E7
BC66659B
BD36C56F
3DCAD157
3CCAE4F1
3CA2EA4D
BD9E36F2
BD51D4EA
BDA5322F
BDB5D19A
BDB31606
3D547C38
3C17ECA7
BD5C90B4
3B5CD992
3DC62874
3CF9F7E2
BC84C2C9
BD2FD3CA
BC84867B
BB04E38B
3D69A7C2
3DE86819
3DB132F7
BC44D41F
BC64F750
3C2DCC82
BD8F67DA
BD6E11EF
BDC755C0
3CECE358
3CA47CB7
3DA4FA19
3CCF4645
3932FDE6
3C152DF1
BD15F10B
3D889F14
BD45B434
BC126BD2
3D1F714A
3C68D006
3D9CD3C5
BDC4301C
3D967D2A
BCB635E7
BD8844A2
BB30D453
BD0D0075
BD92F215
BD504FAE
3DA86646
3D9E6FA3
BDA64022
BC7CDDAF
3E17E215
3DE676D9
BD5ABBAE
BE022956
BD9B3496
3D07E5AA
BD35981A
3D4C4BBF
BCC07992
3A80A8E7
3D120CBE
3D49D286
BD08F956
3B38B806
3D2503B7
3D7944C3
3CE08BEF
BDAA1BF0
3D27DD1E
3D543934
3DCCF56E
BDAB034F
BD9F1580
BD27EACD
3D2CD90B
3D29203F
3D874204
3D9D95D0
BDA16A10
3DA851AE
BD633076
3E12FB04
BC62EDC6
BD8E912E
3DFBCA87
BDA9759C
3DEBBDEB
BDE44E4A
3CA46900
BD947654
3CB9BA53
3D2EC4B7
BD700458
B9E13007
BD34E8B2
BC8DEC86
3D4D4264
3D0E3247
BBF94F7C
3D764943
BD870F43
3DBCF879
BD2EABF3
3AC212A9
3DB3674A
BD8AC430
3DF5BA5B
3CD86A9B
3BAC3EFE
3E0212F5
BABD5F42
3BCBC1FC
3DB9577C
3D391FF2
3C99DDCA
BDB6473A
3DA73CAB
3D35B82F
3D9EAB90
BDA9E15A
3DD75FB4
3B5F820C
BD48E0C8
3D11DE92
BC042875
3BCE5C61
BB09FB12
BBAAD45E
3DD93E9E
BCF1AE77
BD753935
BD9452C2
3C57A9AB
3BD61A96
3D3A9FEF
BC056620
3DCA5DE3
3A8E8855
BD95F95D
3D0EAF60
3C13D932
3DB5BE47
BD6D284E
BCBD2BC3
BD5237EF
3DC84395
B945E219
3B672427
3D12B6B8
3DA5ACAA
3D1DDEBC
BD910950
BD4C545E
3C9C3F65
3DB802BA
BC71E4FF
3D81FF6D
BCD79196
BD1E5365
BD156B85
BD47E853
BD5CF3F5
3CFBE5DC
3DDDA79B
BDA60DE6
BD82F2A9
3DADD40F
3C6B1D2F
3D784A58
BDCB766C
BA91F004
3DCDD36A
3CEC118E
3CA5DF6F
BC9B3A93
3C8A2D8E
BD907C85
BB990A28
BC950296
BD99D495
BC224CAD
3D4D809B
BD1CA860
BD201A06
3D913C64
BD40442D
3D32C97B
3D396822
BDAF08F6
BD553A7E
3CB59CEB
3C402C18
3D7A8D48
BD38659D
3D6216E0
3D7D346A
3DBDB65A
BCFDEC7B
3D2308D3
BDB79AC0
BDC9B592
BD9D655B
BD4171BE
BD9BC6FC
BD971DBF
BD0BA1A5
BDE41562
BD8DF577
BD5A9622
3B81CA58
BD7CE5E1
3DC72E1E
3C81C7C0
BCA02AE0
3D858359
BD0B5E83
3CE813CC
3DA7DB7C
BDBA582C
BBEFDBE7
3D163335
3D48A126
3DE1A711
3C2C41D3
3DA0BE86
3DAC173A
3D159FAB
BDCE3CF3
BD939174
39B5A54E
3D194FDF
BDAED845
BD800189
3D397448
3DE3F8D5
3D7333C3
BA00005A
3C9A391A
BD86737C
BCAF0758
3CDE5DFE
3D92942F
3C006856
3DE43A83
BDAA803B
BDD03C90
BDD4917B
3CA1BFA2
BB846948
3CC9C438
3C006366
3CA6337A
BD7AA0AF
BD037D32
3D86A320
BD09A9B7
BD7B66D2
BD8F5A00
3DA794D5
3DD50E54
BD7E4302
3DF0652C
BB4766EE
B9122EBE
3D7A8202
3D6038D2
3DA7A17D
BD83790F
3DC476F2
3D7A6BD8
3E0EFFA0
BD6602DD
3D762A5F
3CB68F8E
BD2DF5F5
3DD680D5
3C9BBC83
BD054B8A
3C961A24
3DB051E7
3BCBF46F
BD02D41F
3ABE5D33
BDC1FE35
3E08BCAE
BD983102
3DECB2EA
BC02084D
3C9CB40B
BDE28B8C
3CAE7CB4
BD680098
BB578061
3DDF5A8F
3D05F354
3D8441DC
BD5BCD29
3CE43C79
3D07FE8D
BD82BE58
BCBED54B
3C8EB0FA
BDA6BBB2
BD1B46C2
3BDE3BCA
BD90F302
BD31E03B
3DDA23F1
3DD3BED3
3BCA3B63
3D3306E0
3C271480
3CE263F6
BD84EDA7
3D6372F4
3DBCD893
3CBF1183
3B3E7E0F
3CFBFFAD
BB5296C8
BDCE7A5A
3DD0FBDD
BD6A0879
3D5E0714
3D24BD44
3DEFC77A
BD54ED39
BBD18597
BD8531ED
BE0F5B71
BD60B5E1
3D3A9E5A
BD35C334
BD083E4B
BCF3C26E
3CA7BFCA
3DD6EADC
BD76F08D
3B655D9D
B8964F9D
3D46B52A
BDAF2256
3D99B084
BD552306
BD59E7C5
3C0645BB
BDD1BFEB
BD39CAEF
3D864111
BDC58518
3D9EA882
3D55B167
BB880E84
BD30F4F3
3E0277CF
BDC49E53
BDA7F31B
3D124FF0
3DB06847
3C0F656A
BD270547
BDC798F6
BD3BF680
3D48D3A3
BDD4D347
BDEE2EB1
BDAA9EE9
3C18C071
BCA2CE72
3CDF305F
3D998AFE
BCABE90E
3D1B426A
3DBAAFFB
3DFC8FDD
3CC9DF02
BDA597EB
BD8AA05A
3DB9099E
3C0AA002
3B8C7A60
BD3358E4
3CB4F2FC
BD00AF8D
3D9D17F7
3C26D032
3C5595D1
3D1099A0
3E000174
3C249AB7
BD9B9640
BCC72D76
3D0A8343
3DE02FFB
3C6FAD7B
3DD3250C
3D0E9273
BD3DE22F
BC42C337
3E252BB3
BD2D9B3D
BBEC97CA
3D4EFF2B
BCE4F55B
3DA8AF81
BDA03785
BD0485AB
BDE92036
3D89DA72
3D221C06
3D9A6948
BD150BCF
3DB02CDE
BD145436
BD0BFC7B
BDB30BDB
BD8C8D74
3CB61668
BD46FAD5
3CB1D0F5
3CCC28FA
3CAFD1AA
3DAF684D
3D32877B
BDB4ED17
BD2FCBFE
3D309640
BD676A41
BD23805B
3CE94EFE
3D3E5C09
BCFB0F52
3DC162C9
3D9B5DD1
BD0B37A4
BDAB8E45
3CBD07C9
3BF2E6DA
3B87C112
BD1C545F
3D684494
BDA35A0A
BB979D29
3C9DCCFA
3D832052
3DC88E00
BD6DA940
3AF39575
3A901300
BC9CCE46
BD9D7993
BD955EA5
3D66C0CE
3DAFA567
BCB31070
BD347579
3DC63815
3D5AB3E8
BDB79B3E
3CE1932B
3E1E566D
3D96D32B
BB78EBCD
3C957189
BC789F1C
BC8E9ECA
3C98E053
3CE799D7
3D4E3846
3D09FAB2
BD3477CC
3D2D9659
BDBDDE11
BD80C0C1
BD8F19AD
3D617FB7
3DBDFF3C
BD1976C9
3D4B2BAA
BCBD12D4
BDCA0B9A
3DAC1B9F
BDD6FABF
BD8EC441
3D4A0886
3B5E008A
3B835E63
BD09059D
BDD04BFE
3DB1E928
3C9E70CF
3C0FD4DF
BCF4496C
BDA68410
3D477196
3D7622BF
3CBEEF04
3DDC30AB
BBA6D022
BDB916E8
3D2999F9
3D84702D
BDB5293D
3BE766F9
3D26EA3B
BD242F22
BCC84359
3D83986A
3C8EC2A3
BD6639BB
3C2B3076
3C925218
BC722F44
3CE80728
3D554DCD
3CACB057
3D38D64B
3C9042BD
3CB7B4E7
BD7B82B0
BDB80283
3DA43A12
3D5BEBE8
3D9BC8CD
3D0EDD68
3D292CFD
3CABBC6C
BDA49149
BD6697CB
3DA7A1C8
3DCD6D03
BD60BE8A
3D1FF7B4
BDBD6346
3DC82C64
3DA88C5B
3DAEA938
BD9C675A
3DBCFB63
BD0473E4
BDBB96B1
3DA621BC
3D2834B5
3D2C5CA0
BD7ED7F8
3DBED7B3
3DFF3D38
3D1E8FB2
3C27973B
BD628500
3D148353
3C104E6E
3D37A722
3D7BA561
3B0E62DA
3D8239BF
BD9DEF5B
3C53F12D
BD1AFAFA
BD013362
3CFED5E6
BCC3D3B7
BD488FF6
BCC4AB23
BB77E4B2
BDD61E19
3D526463
BC9A8938
3C6EFB20
3C0D4241
BDA14ABB
3DA3249C
BD0EC414
BB8CEDD8
3D0036AC
BCF61078
3D75919E
3D44CF46
3D3B84F1
3CDA19EC
3DD49C3F
3D0B7CC8
BDE570A3
BCD6CD9E
3CE86FA9
BDAEC57B
BD7E2624
BC55A57F
BDE7966A
3E0A2B28
3DBBAA7F
3DBDAD03
BDE0A5A0
3C46CDB1
3CF58A22
BBF055AB
3DA71ADA
3D6D3B09
BD7D9147
BBF6308D
BD194E54
BD043365
BBA1F0DF
3D59026A
BD80347A
3CD01E2B
3D3CC2FD
3CB1182A
BCA7CF77
3D4D17FC
BD11271B
3BB6F8E3
3D85D978
BC08C7A5
3DA3FDFE
BC5BBA83
BD80CBDD
3BBCFBA7
BB68769D
3D1C2B01
BD1C0C95
BBCE0E29
BDDEAFFF
3C9D6339
3DBF40BE
3C4B71D9
BD2BA294
BD24F198
BC43250B
3DA4AA5E
3D7BF302
3CBA6063
3C15F3E6
3CC5FF67
3D251573
BDE9E3BF
3DA45E45
3D4A6B6B
BCE357ED
3D4FED1E
BDB16EBE
3D27725E
3D33FE02
BDDC281E
3D82C7C4
BC5B651E
3E295A6D
3D256C80
BC1578B7
BC0ABFC1
3DC9C5AB
3DFAC89B
BD847D92
3CEF36BB
BD815C87
3CDC6FEE
BBC8CCFC
3DDAFE8A
BD349D0C
3DB7B1C0
3DCC1596
3D06EA01
3DD16CCC
3D450726
3E1CF0CF
BC8F9FBC
BD606F3E
BE0F6A2D
BD891138
3DBB09D3
3BF0B3DA
3C3B343D
BD39A7BF
BDACEFAF
BDAC8CE0
BD43278B
3DC486A7
3CF57082
3CAD6BAF
3CA35391
BDD560C5
3DC0985D
BD29E719
BDA71FC3
3D86A39B
B8D71422
BDC6B5AE
3D907CCB
3DAB1E1D
BE17814A
BDDBB07C
BD3992F2
BD7D25CC
BC8A63B4
3D211168
BC85EBE9
BD1DC26A
3D9599EB
3D8BC7B6
3CA8135D
3D85D111
3D64E972
3D85122B
3C7BD550
3DB9B562
3D02C4D8
BCEB726A
3BCF4992
BDA1FDE5
3C4840B9
BDC5041D
BD41112F
3DDF3D35
3D772246
BDAA748A
BCF822CE
3C009391
BD06E55A
BBE7A929
BDD03EFC
3D9D0D5E
3B319FBC
3DCF8416
BD0F2643
3DADC318
BDD6DC69
BD94117B
BD4E2925
3D531598
BC488893
3DAB0370
BDC2D3C6
BC106856
BD75226B
3E10BE15
3C6AB26B
BDB19ABC
BDA74488
BD8B5E17
3DF2116F
3CE30D23
3D3EFBD8
BC677746
3DAE5C65
3D812296
BC3EE3CC
3C1FCCD1
BD05D222
3CCF7D25
BDB8B52D
BDC4E116
BD2648ED
BD5A307E
3CDEFE64
BDB9AF2D
BD32868A
3D86F63C
3DBED3D6
3D8CF777
3D2E5989
BC45747A
3C4D0A32
BB8F8045
3C030EA9
BD35E27C
BDB7FB58
3BB688F0
3D3CE7E0
3CD77B32
BE00E825
3E254968
BD189F44
BCE678DA
3D887EAC
3D7863CC
BDE18F12
BD7DF1E9
3DEB9D41
BD85F3E6
3D88F69F
3CE325D7
BDB3F027
BD98755A
BD4943C6
3E0603B9
3D805D13
3DA97D0C
BD69B51A
BCE37A34
BB7645E8
3D06CF4E
BD373A14
3DB7D612
3DAA0434
BD3095D7
3CC29187
3D1E9CCF
3DCF0289
3DA84F67
BD829318
BD9E8A19
3DCDFBED
BBA765D2
BDB86F5C
3CF617E9
3D778082
3DD0C9EB
BD33934F
BD5443E1
BC615447
3D707D9C
3DAA1043
BD530C9F
BCF88655
BD1D91B8
3C6A0C58
BD78216B
BD3A93AF
3CF7F370
3CE6F366
3D6A53C1
BD51EFB2
3BF28407
BD580CA4
BB8F23DB
BD19E6CA
3C8560B1
BB5DC84E
3A571AD4
3D9FD0A2
BD34390A
BD666EB8
3D933D51
BCCA1F78
BD277385
3DBF1619
3D17B5E5
BDAEF292
3D830A77
BD6A4111
BD54A549
BDCC2B1C
BDAB4F10
3DE41D44
BCEDA092
3D73C147
3D505123
BD23968E
BBCFB680
BC80B0AB
3C89D02B
39B97B17
BD7E9AE2
3CCE3A5D
3D857CCC
BB65AC19
3D51429E
3C887AC7
3D069547
3DAD7AA7
3B4B7119
3D4184E7
3B8818FD
BD37C18E
3D83F357
3D03336F
3C1B1D6D
3D489ECF
3D81B1A0
3C0E5D14
3E1441BB
BD0482B0
BD8B50EB
3DDC5D33
BCE7168D
BDD5E05C
BD7FE85A
BDC1735E
BCF66271
3E29C0F0
BC9ECACD
3C47F2F9
3D1496B6
BC04F3A6
3AC398BD
BDA9CA64
BD158030
3DCDC21C
3CB9C0B6
BD9E183B
BD104613
3DA456F7
3DC9BD97
BD0D915E
3DC9FD1C
3D93BFD3
3D82C807
BDA656C7
3D97E221
3D7A3F9E
3C882BE9
3D5FC93B
BD31C4CD
BC9BA183
BD15C5D8
3C677757
BBE899A8
3CFF0CDE
BD9E0885
3D16A9BB
BD7BE3EB
BD1D086C
BBDA47D0
BD271B24
BC2BFC9E
BD43D1A1
BB2BF162
BC192F0B
BD64AD2B
BDA7F90C
3DECFE54
3D295A4B
3DA404B0
BC8EBB98
3E04B559
BCF0B26C
BD9ADE2D
3CCE4513
BC6DD791
3DD09C85
3BE05779
BD1E1011
3C57D73E
3D7CB34D
3D8E8AD6
3B8C509E
BD855316
3DB8224F
3D88CD6C
3DE0A6E2
BB72C5FA
3D9D864A
BD22BF0D
BD7EAF4B
B6C60E7C
BDA3A923
BD8475CF
BC3EA30E
BCDA68E2
3DC59680
3D18ABA4
BCE003F1
BD995A67
3D9675F0
BD7C8F7C
BC7897B3
3DDE1318
BDB93AB7
3D060B85
3DA4300C
BD7948FB
3C4CB3A3
3D60BE4E
3DA0EDF0
3D0F2575
3D01EBC9
BB173540
BD033F09
BD1D647E
BDABAAB6
BD3B7AAA
BD881BF5
BD7350C4
BDA6C6D6
3C9B09B2
3D942B5D
3D2AFDDC
3D9052AB
BCE5C0A1
BC7AD902
BCFC9B9A
3DD9F597
BCC7A9D7
BCD129F0
BDAF3B7C
BDAFEE72
BCD4EB15
3D76600C
BCD1F699
3DE763E3
3D325FFF
3DAA7DCD
3CE2F484
BD0F01AA
3B06719A
3B975F2F
BD7B0F27
BD488581
BBCBF5C8
3D806CE2
3D5A7CC3
3D9A69C6
3D9F32E3
BD9AC26D
3D7FFCB5
BDA26EF7
BD967686
3D8CF245
BB1428F8
BCAB642F
3C257020
3D5C31B3
BDC7E5F6
BD8D92D3
BD4E0247
BC09673D
3D6E5D0E
3D152F4E
3D9E2FF3
BDA80082
3D9E3EB9
BD13E027
3D2A7461
3D34D0C2
3BA39666
3DA0C655
3C346030
BC91A77C
3CD126AE
BDA962A2
BCBFA584
3DB07B1F
BD4CFEB7
BD90FA22
BD9D5810
3D82F28C
3DB832D7
BCF0C7EE
3BF015A8
BDB9B29F
BD35F03F
BD8AA1EA
BD75E6AF
BCC2B1F6
3B90B670
BD30C005
BDA04FCA
BC0AE37B
BD4E3DFB
3D28826A
BD95CB55
3C80DFC8
3D42E4F3
BD0F359B
BD682CAD
BD4176F8
BBDA51D7
BDB185E3
BCC0FF2C
3B2C1FD1
3CAE2275
BC862494
BDAF23CF
BCEA0CF8
BAF31E77
3CA745D8
BD3DB6C2
3C904762
BD0BD049
3D938E20
BD8CF6E1
3DA2B70C
3D064A87
BDB4FA53
BDAF7A07
3CD0DBE3
BC327FE3
BDB91B55
3D712DDC
3DAD8663
BD6371B5
3D1F2D11
BCB420DA
3D94A9F4
3CA29E12
3D01030D
BDADB6F4
3D34A13D
3D08AC19
3D4FA4F1
BDB7240A
3D8967DF
BD0C7166
3B2DA931
BCA8D0CD
3D9EF380
3C6C7B2B
3D13C4E3
BC6E38E5
BC918752
3CE6B852
BDBD7393
3D8AC5DB
3CC54A1A
3D828215
BD4EE6C7
3D279F8D
3C98D371
BDADDDCD
BCD64BEF
BD941533
3D3BBF55
BD9E5EEB
3D1F236E
3D885B5F
3BE01A09
3D606187
3C5FB856
BD334EEF
BD434998
BDBD6E26
3D6D0B84
3C4262F4
3DB0CBEE
BD0AE448
BD1277A9
BDE9C34C
3C1AE8D2
BC605556
3D9248E6
BDAB1766
BD084FEB
3B983A1D
BD245F9A
BCB7D97E
BD23CA85
BBBA7E62
3B85F95F
3D9EC6EE
BC7FC073
3D178DE3
BD01DB82
3D8E314E
BDC3E18B
BDA96295
3D9C6A2E
3D7E5DD6
BCB7E4C4
3C150275
BD3C8DF2
BD2775DD
BAC4EA03
3C762E8E
BD1A045F
BC3D7AEB
BC170576
3C337A5C
3CFD7B97
3DAA7C16
BC4B470F
BCB8A8F4
BBB1B156
3D3A4F26
3D3D33E7
3E08CBE2
3D01DAEB
3DC03115
BA8384A8
BD5EF7DB
3DE1BB6A
3DC9C235
BDAC04CC
BD9291DF
BB085053
BDA19A54
3CE1F547
BD6674E0
BD90B244
3D623710
3DBD8BCA
BD687DCD
BD4F0E10
BCBD50AE
3D7BA30E
3A15DD3E
3CFB53F7
BC7C174E
BD3DD571
BC0E4DEF
BB33CEBC
BC21152E
3C5A22B6
BC89A264
BD08B6D4
3D0F0824
3CBE3770
3D8B8245
BD0CB4B8
3D41B024
BD8CA9B6
3D0D6CC3
3CBBFE61
3D7A8F4B
BC325BAC
BD9FEC72
BC5508FB
3DA145BC
BC89C43B
3DC7A539
BDB59818
BD8E0968
BC8538EA
3D16D7D4
3DA8E11E
BD6F476F
BD2C8363
3DFA5645
3A3E374A
3A27E904
3C327B12
BCEA5190
BDB5522C
BD8DB269
BD88AE52
3C3C7D51
BE121A66
3CF7D640
BD8B2457
BDBC65E6
BC94C8A8
BCCEA38C
3D865589
BDDFC6B2
3C8A9FBD
BD966DEE
3D9D3D2A
3D9C177C
BD42CB1D
BCDC602B
BC094FD0
BB90404E
BC9C0C70
3D7F4526
BC27D151
3CF80E3E
3D5EF8C7
BC343B62
3D3EA2AE
3CCF456A
BD5297C1
BD3E525A
BDB09CE3
BD96DBC2
BD168861
3D82B3E4
BD6FBF0A
3DB23759
BD8FD267
BC79A818
BDA9C86F
BCA7CFAA
3D690653
BDBB2060
3D04823D
3C924AE7
3D85A1BE
3D148A9F
BDA626D7
3D038502
3C42EDB9
BD6848AA
3D5FD750
BC101969
3C293BE2
3D20500D
3D77CC3E
BDB09ACF
BD5D04AB
3D6BAD01
3C88F99D
3D80D332
BD8891A0
BD4A8A14
BD8B2AE5
BC0C1D9E
BDB6AD47
BDB77472
BD2A883B
BCF4F786
3DBE2156
BBB877FE
3D7CF735
3D0DF0DC
3CEBE783
3D5217D2
3D915E39
BCB4B4B3
3B8C5000
BD93FE95
BD2FC02F
BD64EAFE
3DBA351F
BD73369D
3C8BEFC3
3D6C077D
BD9986A6
BD408F24
BD71F236
3D46F05C
3D947B7B
3DAC7B06
BD3B8221
3D85644C
3D694353
3DB1A93B
3D02AA94
3D6A914A
3BE15565
BD51C494
BCF6AAC2
3DA248B3
BD3F2F14
BDA40D30
3D847C95
BCDD1CC2
3D8E892E
BCB20C5B
3B950A68
3CD74EE6
3D84EBFD
3D56C8B7
3D60DCF7
3BC523CF
BD920162
3D17D5EA
BDA3D01F
BD1BE4FD
3C5BDEF4
3CAFD152
3DB680D2
BD38366D
BD91E258
BCBBC089
3D2A29BD
BDACA5E2
BDB086B1
BDA2F4B3
BD1BFF18
3D8B58E8
BD51D3B9
3CEDC8EF
3C96A4F4
BCC11F33
3D20300F
3DA9E2DB
BDAAE451
BD9564D0
3D374434
BC936D38
3C97CE28
3D483C3A
BDA12E04
3D9F4947
BD10742C
BD970A47
3DB0875C
3D7A1AE3
BD7A1CCA
BD840F27
BD7A9E04
BD5632CF
3CB9A5F1
BDB915D9
3D7E62E6
3DB29623
3BDFD7C3
BD3B22D6
3DA88DE4
3C662B42
BCE273D2
3D344818
3D60534C
BD8207BF
BC00FD0B
BD5EAF23
3D7AA814
3CECCE70
3D7B74F8
3D9F2B97
BCD903AA
3D2DE006
BD0B8FE1
BD493571
BD3D930C
3DA32809
BDA6D826
BD0B4AFA
BC71C6D1
BD4031E3
BD557E30
3DA5EFF5
3D5FA420
BDB0A213
3C3446DA
BC6F5432
BD906627
3B135D7E
BD7F8013
BD2EE419
3C98B663
BD963F0A
3DB3EAF9
BBA3FFC9
3D7F64F0
3C82A86D
BD5ADC4E
3D27E8EC
3D65E5EB
BD3E7583
3D8FDDF4
BD0A653A
BCEF1A73
3D526BF0
3CEA6C67
BD869F55
3D99891E
3D135A90
BD52CA1A
BC855E58
BD3BDD72
3D9517A9
BDB79E9F
3D026FB8
3D1AD410
BC1DC9B7
3CE10807
BD9B7647
BCBCCC81
BC8E15F6
BC69B1EF
BCF97D04
3CB29670
3D153D46
BCF2E0A7
BDAC4553
3C67CEEF
3D294B07
BD0A1687
3C188EC2
BD95CB60
3CC27090
3CC1E283
BDB90539
BC92EFE4
3CE3728D
BD89BE7C
BC4B07F7
BD9C6823
3D1F8C32
BD73B9C5
BD89A439
BDABAD48
3DB01352
3D444334
3DA9B972
BDAA6704
BCA2AF1B
3DAE797F
BD58DA96
BDB87659
3C99A90E
3D4A5E61
3D2CA79B
BC090134
BD44FBC5
BDB7D906
BD8104B1
3C9DE6F7
BD682B9A
BD97F868
BD44753F
3D9D32B8
BD522B93
3D189D6E
BD29B828
BD8F8E07
BC9D2630
3D29904E
BD34BABD
3C8BAD6A
3D8A8006
BCAF8E11
BDA0BC74
BD19DB31
BD9662D1
3DA8D685
3DAAFCBC
3D4A4C11
3D99820D
BD9C500E
3D12C9CF
BD61BB02
3D78728F
BCE3646D
BCE66EEF
3BB81766
BCDB6715
BD5CE006
3CB9786B
BD97EECE
B99DDBB9
3BA46DEF
3DBC4388
BD7EB839
BDAC3001
3DFF7E9D
3D9FDC58
BCDBF01E
BD984283
BC54F715
3D34A9A3
3DDB689B
3D759FBB
BD40E470
3D7396F4
3D8C5FFB
3D2C0D38
BC75B6AC
BB5313FB
3E298B2E
BD4154BB
BD89F85E
3CC07570
BDF5BFC5
3D046735
3D25CEC4
BDB8F871
3D57C3F6
BD284A2A
3D83CFD9
BE039F0B
BC22E108
3DA8421B
BD60A67C
BDA3729C
BCF1DC2F
3CD7FDBD
3DA6A13D
BCD729DB
3DED67ED
3DB120B8
BD5EDE88
B7B7948F
3DAAA5C7
BD9CE7D8
BCC78F1B
3DBB0384
3D7CB06D
3D76237A
3CC216A7
BDA7244E
BDB4A8D8
3D4CE325
3DCBF5CD
3CBEBB6F
BD08C890
3D193728
3CA2095A
BD4A2862
3B6F6AE8
BD5F34CE
BA0F0B03
BDB59666
3BA8E607
BD3AB52C
BCD3F28C
3D3CF0FD
BD529B27
3D1EB9BE
390196A4
BDAE3AC8
3DE69F13
3DD902BB
BC9B305F
BCF197FC
3D7B4E94
BDC51D1E
3DA1415C
3D0CB8F8
3D2CAC22
3E25C884
3D5EE45D
BDA8C746
BDF4E8BE
BD0947FC
BD5A9F1A
BC9BAFDB
BDE4EC20
3D282124
3DC22AB2
BB0ABE87
3CCDFCB6
BCF06A86
BD124D3B
BAA291FA
BD202585
3CC14C48
3D283D96
BCF2D080
BD98D145
3DD2F054
3D890F1B
3DB34D49
3D836D69
BDACFE72
3DAE68B4
3D82B6F1
BD4B8697
BBB9D5E9
3CE7B04D
3CD92BC2
3C3B0E7D
3D3033B1
3D23AB05
3D9C0C19
3C0AB9D6
3D930F15
BC51F6F5
3D75733E
3DB00C93
3D19C631
BDDE7DC4
3DAB98F0
BCAC8ACE
3D8FE33D
BCB342D1
3CE95E67
BD526CA0
BC38DC1A
BD896D00
BE18C0B1
3D867F43
BC83A678
BCA65688
3DC245EA
3D8C6195
BDAE4041
BCB5910F
3D323360
3DC7F4B0
BDA0996E
3E1945BA
3D54330F
3C9F3522
BD151131
3DBB3103
BC150362
3CBDAAC2
3D33ECA5
BD5F37C8
BC40B23F
3D33904E
BD87AE3C
3D02821B
3D81433D
BD752ADF
BD09EFD6
3D180CD9
BDCF1610
BC5E55C4
3D40635D
3D80FF52
BA6F9EDF
3D600443
3D4F54C5
BDAAD09F
3D4C3086
3C646CD1
BCD66E6C
BAB26F87
BCDAFC8B
BA9FBC1C
BDA09251
3CA6BDC1
BC93C52A
BD914758
BDC274B6
BC41ABD6
BD1E874A
BD2F0DB9
BBF5E5DD
3CEDB46A
3DA9A931
3C8644F4
B9946775
BD615150
3D4379CD
BD3B83D5
BD680738
3D861031
BC03B52E
3D1095BE
3DF647DB
3D56C4A4
3D41F4F4
3E0CFAD5
3DCB3E8E
BD564A42
BCD2C3C0
3D944E56
BC618B55
BD736E28
BA9A2CFA
BD790DE8
BD087C8C
BBDD1DD4
3ADB644E
BD797918
3D857F00
3DC8A3F5
3D98A189
3D842F20
BDA703E2
3B7FA01C
BA88D5A0
3BDB2997
3D4BD375
3D0DF134
BD71307A
BAA70075
3D83B163
3D8C66A3
3D44D4F5
BCE92161
3AFAFFA6
BC866142
BD36A246
BD40B239
3DF3EAED
BD046AFF
BDA7F5DE
BD3008B6
3DBDC031
BD3E013A
BD1B56DE
BC8FC2EC
BD6CC4BE
BCF25670
3CB06A5A
3DB47584
BDABBCD4
3C1D13F3
3B849936
3D2D2D80
BD74C0E1
BCAD5D9C
3DCAC76F
3E00DD19
BD92DF0E
3C96F1AA
BD4B93FB
3DE3EDA0
3D30D765
BD03ED2D
BD2637CC
BD2BE319
BD3182F8
3D8B4A63
BDB2E44E
3B196E29
BADC7FD6
3C0D2755
BC99BEA0
BC6F634C
3C71AF72
BD3D8EFC
BD87C3FF
3CDCEEAA
BCBD9A71
BD9EDBA5
3CBCCE2E
3D61020C
BDA38CB7
BDABDEEC
BD021A6E
BC295488
3D2C92A9
BC297623
3DC54923
3D462DF6
3D5ED944
3CEBC67A
3D9E6DDD
BD8DF17B
BB82428F
3D5470C3
BD1945EF
3D99690A
BD138A1F
3D68FEB1
3CD9837E
3D0689EA
3D3D6D63
3D17A160
BD9526F3
3D2FF9E1
3D2074ED
3C5F7340
3DE6C94E
BCAD3F75
BD8ADA84
BD698BB9
BD8C9AFA
3C60BE43
3C564421
BD685646
3D665C46
3D35EE5A
BDC4A2AB
39101C50
BDAD4352
3D5A75DD
BC300985
3DB372A9
3B1A21C2
BDAACB89
3DA82F22
BD907F71
BD84F2CF
BD907F09
3D02388C
3D556B10
BDB0AEBF
BD322933
BB6D73DF
BCE9C0F3
BD017E53
BD62A567
3D9BB824
BDB5A241
3D5F9928
3D3C5F3F
3D7476C5
3D95EC0A
3D4E4A21
3D6F3B1B
3CBCE6F7
BCB5E64A
3B46EF05
B9572FD8
BD1C14FE
BCDADEB3
39B58D4D
BDC313A4
BDC6AF9A
BD77A1CD
BC8F48D6
BD8C5CA3
3C76AE1A
BC2A3BE9
3DA4BCA8
BDB86029
BD58120B
BCC0F742
3D4B0638
BDADF71C
BA797852
3CC151B2
BDAE3A43
3D87E848
3D5ECCFA
3D46DDCE
3DAB1274
BD9F22AE
3DB9D433
3D91B5FF
BD805759
BD94A6BD
BDAFFAA1
3D949E27
3AC66446
BD8CF342
3CF74393
3DAA2896
BD611E08
3D99F875
3D5E0B51
BDB8C2EE
3BE127BA
3D13F1FE
3D49492C
3C21B38B
3D0169AB
BD17116B
BC20D112
BD201919
BD2FA4E1
3D9BB68D
BD93A4F0
3D9E93FC
3D1718D7
BCD0EC0F
BC3179DC
BC35A3AE
3D0A90A0
BC0C2C76
BD73AF42
3D8E8A9B
3C2F9234
3D1EAC84
3D2471F4
3D397215
BDA4CB0E
3C94545D
3D25431A
3D030B4F
3D7360E4
BD34835D
3BD38318
BD68B9F6
BCD9546C
3AE31D74
3D80BD01
BCDC25E6
3BE25A7E
BD5BCC2C
BC931F16
3CE785F1
BCD828C9
BD9FB9B4
3D3C2AD4
3DA4FC79
3CC5B712
BCBAA0AF
BD959270
BDAF1BC0
BD82AED6
3DA2B521
3D078535
3CFCB46C
3D3641CC
3D8CDC29
BD1B2F5C
B9C85EDA
BD8CA0DE
BC16D2C8
3D121484
BD95D9D3
3D44C7CA
BBF4B01C
3C45CD75
3D6E8E89
BD44754B
3C8AE541
3D6821FE
BC7B673F
BCCFC17B
3D1B2C44
3D257702
3CE52E00
BD8F009D
3D6D0574
BD856978
3DC01F54
3D532912
BC4C4B78
BD73EED5
3D1D7CE0
BC94FAAC
3D0A2A67
3D0E7999
3D19072D
3DBA590A
BD2BA028
BD2730B8
BB82D398
BDA4CB9B
BDA3AFB0
3C886904
3CF62B1F
BCD7C21B
BDBB7837
3DF8E878
3BCB1312
BD8709A3
3D5F0EB6
BDB9FB6B
BC6595FC
3D625DDF
3C97C7BC
3D5AC090
BCD0EEF4
BCD99540
BD981C2D
3B8283B0
BD8ED685
3DB637AD
3DD36212
3C0A6C95
BDC351ED
3D74D83E
BB068FEE
BC94A2F1
BDA03826
3C9472E8
BD266642
BD7A56E0
BD90A773
BDA9AC89
BD912C82
3D24A964
BD457043
3C6A7FE3
BD9A8F88
BD9FD890
3DA2CE7E
BDD21B68
3DB052D5
3D519430
BCFB36BD
3CFE0C1F
3D48691F
BD561203
3D2BE7F2
3CD878F6
3BFCFBE2
3D02EE23
3D2C6972
BB9C036E
BD4A7AFD
BDA2D534
3D0DBDBE
3D616D7B
BCBD75A3
3D422C0D
BDA6E69D
3DA0CC11
BD7FBE36
3D506B49
BBE2EB2F
3DB13EEA
3D393668
3D684834
3D73C3F2
BDAB9D27
BD917DC4
BDA1B8CB
BD63E973
3DBA0296
3D30FC2F
BCD0549F
3CE3BCB6
BD1B9EC3
BDC62C1E
BD84240E
BD8B62C7
3DBD71DC
BC8C791B
BDAFB675
3D02FC5D
3DAB2330
3D8B576B
3CEDD021
BD95CFBA
3D1C3CCA
BDA41DAD
BD8CBAEF
BD880522
BC50EC64
BCF0C370
BD555F1E
BDB16E5F
BD9B5E62
BDBA0539
3D9DDCD7
3B405861
BDA0BB9C
3DB5B9BD
3AAB6751
BD5F88EF
BD9DBFD3
BDAE7C5F
BB9CB27E
BE3D69DF
BDC05102
BDAB8360
BCAE1BCE
3D0FBF90
BD9EC099
3E1C93A0
BD290DD6
BDBDE5BB
BD83D0C0
3D134B41
3D84BA9D
3E215AB6
BDAD8FE6
BDA464AE
3DF863DC
BC32B291
3B901FFB
BBCF1432
3DB2131E
3D599FE1
BDF9590F
BCA6B482
3D8D0806
BD5BE603
BCEA62DA
3D77D338
BDD5CB32
3BDB83DE
BD31F909
3DB53134
3E039E01
BD02A1F6
BD0FF1F1
BD2B7CC2
BD901A39
3DBBA731
BD08EE0C
BDAA1F11
3C1E8E72
BC37426D
3D9E29A3
BCA22EA5
3DDB8BFB
3CDB4C5B
BD5B7584
BD887F89
BDCEB409
3DD10C86
BCEF9700
3C83D214
BD6BDF62
3D97CCA4
3E37D694
3CEFFC1E
3BDD80F1
BDB73D7C
BD892322
BC9C0359
BB2CE5BC
3D1796D2
BE26EBCC
3D16F730
BD86F282
3D512A1D
BBA09727
B8FED030
BD1772A8
3D79E548
3D4E4DEE
BD8AC831
3D919708
3D432CCE
BC32FAC7
BD517E88
3D2CB46A
3DAE2108
BDDC0E82
3D9301AB
3DC139C5
BD93F8E8
BCD30687
BD8E26B1
3CF2C50C
3DBE0466
BDF863D5
BD5B5F9A
3E042365
3C376213
BD83C1B5
3D2FD8B2
BD9013F4
3D75FC1D
BD8984BC
3D432350
3DCCD3CF
3DF3537E
BDC2D3E8
BD25B69F
BD1216F0
BCF3C781
3CFE14BA
3E066F53
BD39B707
BD9FCC81
3D32469A
3D6B1482
3CC653D6
BDA25DC6
3DF86338
3CC709D7
3D96CA61
BDB703DF
BD51F71C
3DC0CDFA
BCDC5518
3C12EAAB
BD975F89
BDBACDB6
BD6888DC
3B98D0B2
BCE9F70C
3C799CFE
BD0684E6
3DE86FAA
3B7761E6
3B86C1B7
3DC11CB7
BB8F5A4A
3C9C3F20
BCC06948
BD807027
BCC55322
3C03F424
3D06E3D8
BD00FC35
3D69F7E1
3C7E092F
BDAC887B
BBA82837
BD2D9976
BD9CBFB8
BD9ED8CA
3C1E8523
3B94EFCB
3D30F9E1
BD98AC72
3D40C70A
3CE7BC1F
3C81CF02
BC8F3FB0
BD5EF2E2
BD8231AD
BCB59A81
3CEFBCCF
BD46CB0C
BDDDF34F
BCB0B159
3D832CA1
3B745A77
3C4CCB98
3DB5BDE4
3C94598C
3DFFDDF2
BD0D2AF8
3D21B03D
3D18E5E8
3D2F1B17
BD82C04F
3AB6C6F1
BD96F372
BCA55803
3AA9CF74
BDC01707
3D91C2B5
3D171E77
BD12F99B
BBDABC54
BD9BD3AE
3DFB8CB9
3D9EE722
BD62B8CD
BD5224FA
BDBBBE7D
BCBF8A14
3D8F109C
3CD6D9B4
BD1FAB0F
3D909AF9
BCD4A16C
BD12F79F
3D318F54
3D099736
BC3CFF19
3D383319
3CF2BE40
3C5209F0
BD49AB07
3C451A14
BD996B06
3D10D6CD
BDEF432F
B8824ABC
3D7B1252
3C259B82
3D20179B
3D28B599
BD09CA6E
3D3D1A34
BDD8ADC7
3DCF142A
3D37362C
BD789E48
BBE3DF97
3DAA7403
BD428E65
3CB01730
BD7AACDF
3D3AC981
3DAB2F65
BDB92974
BD9BCABC
BE04FF3B
BD8C115B
BD324FD3
3D84BD62
BD59251F
3D348174
3C106544
BC8F3257
3D1446D0
BD27217D
BD7D7274
BC860AE9
BD7C3DE0
BD87E88C
3D9469A6
3D924AFA
BDAD539D
3D2050CF
3DB94554
3BD434EA
3CF4B0FF
BD0ADE57
BC417AB1
3CE8FE97
BDA4227A
3DE86075
BB8CA1B6
BDB4E62B
BD6A3CA6
BDAA7629
3D262EC5
3D6E872A
3DE53D3C
3CDB023D
3C6407EA
BD241ECB
BC6F0594
3B8A58C1
BD2E9124
3D0ACDAE
3C4DB472
3B468708
3BA84139
BC219B1B
3BCA4374
BD49AFB8
3D9B3C84
BDC04EB6
3D9F6949
BD968B76
3D83F368
3D6FC73B
3D8D1E75
3DB587A6
3D9BB976
BCA67F24
3D1BDAB7
BD61C283
BD1418E0
BD192477
3D8E66F7
3D4D748E
3BF94819
3D0D09C3
BB41C6AD
3D95FB5E
BD90F4EC
BD73D00F
3D85B069
BD807957
BD5E5CAD
BDB6F9A1
BD32D1AB
3D951AA8
3D800941
BB922EE3
BD6AA1FA
BD086E7F
BB7E6F35
BCA3E74D
BBECC4FA
3DB56B1D
3D3906EE
BDA431C0
BCD48986
3D3DD3DB
BCBACA0A
BD0CB2CC
BD44E23D
BC11E220
3D1369BA
BD130ECC
3CE38F5B
3B14B56E
BC5D1C5C
BCDABB57
3C70381C
BD0F3FC2
3D02E904
3D53EFA3
3DBA1039
BD069E05
3C7D8550
3C08D9C5
3DA211C1
BD495CEC
BD81BFDB
3D8D6F1F
3DC186D1
3D81FF5E
3D1563D1
BD6899C2
BDD0BB07
BD911E2D
3D12FF73
3D129028
BD9B8283
3CF56606
3C1EF0FF
BB9A272F
BD37BD6A
BD89E767
BCAFFE10
BD9BC53C
BDB24EED
BD83EF66
BD849BC8
3D00F8D1
3C1B3468
3D98BA1F
3BAAF495
BD1D7DF0
BD8AB2B3
BCD9D97B
3CDD8F48
3D26744D
3CBAB3D6
3D16B04F
3CA3A996
3DB1FB66
3D482699
BDC4B994
3D0C46AB
BD98839B
BDF20B74
3D0F5EC2
3DCD1F5C
BDA961B4
BDC097B4
3CC71928
3D107997
BCEC608C
BD3799E9
BC1EF098
BD3AA896
BD92AC75
3D06D2C3
3D9FEB1A
3D50A32D
BD4C74DE
3D8938F4
BCB12B25
3C270F91
BBADCF53
BD26B6CF
3CA42014
3CE2431A
BCE2A9D0
BD181BB3
BCF2A0C0
BC04481C
3D9F969A
3CF506BE
BB83A6C7
3C9AC8A5
3C9D3C31
3AE3C5E3
3C816FC7
3CFBD8F1
BD38403F
BD5E955D
BD4E0670
3D830978
BD63121E
3E01D027
BD1AD3DA
BD7E0C90
3D7FA334
BDB96403
3D82BADC
3C6662EB
BD89479E
BCBEB5AD
BD75548E
3B5976A9
3D7C4ABF
3D0FA849
3D0F3AC7
BD1D1EEE
3CC3AF04
BDA160D6
3DE4989E
3D7B8489
BD39E4FF
3DA143FD
BD6AF66F
3D242331
BCD50116
BD0A77EB
3D5422A6
3CDFAE8C
3CD55F22
BCF6CA7C
3BDAE2EB
BDAD6631
BCEA0B7E
3D8762AA
BDD4F726
BD35828F
3DA2CEEA
BB89FCE0
BB490514
3CB5026E
BD63CDD5
3D77F4AA
3D38C740
3DCD6976
BDA5793E
BCF4C15B
3D78D838
BD029065
3D85214C
3D7194CB
3D99E6CF
BC5DD105
BDAAB7FA
3D52536F
3D3019A8
3D4B3247
3D98CD93
3C84DC1E
3DB19C60
3D77CB6E
3DFD3F56
3B3492B1
3E3FBED8
3A3B1408
BDB2D0FE
BDD12C41
BD334BAD
3D8146B4
3DBA31EE
BDD2B474
3B5F463C
BC90B0E8
BCD14F55
BCB19F2B
3C35DFCE
3CE7DD45
BD4CA024
BCF69589
BD9F9545
BC4ACC6E
BC4B4D86
BB652570
BD94FFCE
BD72994A
3D2CB818
BD84492B
3DB8E714
3DFA0B9D
3D7AA2F8
3D1F3F33
3B22A7B3
3BE40353
3D94791E
BD71A97F
BCA8E6E2
BD9F2FAE
BD3FAD1F
3D0F384C
3C2D16DF
3C45F940
BDD91F58
BDBC3076
3CC779DE
3D775D3B
3DA8EB22
BCC1EBFA
3DB95054
3B868C5B
3D1BABCA
BC0D3875
BD0276B4
BCB6FCFB
BD379681
3D3D30D6
3D4D5DBD
3C9588DC
3DB7BC39
BB89F0C4
3DD71CD0
BD59FB08
3D96DF47
3DBFCF28
BD32040C
BCE2DB27
3C776077
3BE1145E
3D00EE5B
BD0551D6
BBD8C2B4
BD9DCB35
BD8EFCC1
BC7074C7
BD1F93B7
3DA9D796
BDCE8696
3DA91AB2
BB870686
BD85632C
3D17350E
3CE73529
BDA79525
3D614B4E
3D9474D2
BC41CB91
BDBF9214
3D7DD47B
BDB34176
BDA3509C
BC95D82F
BDA8CD63
BD9B4068
BC4DAE85
3D167EC0
3DA525D1
3DCBFBBB
BD4ECDCB
3C822048
BC59D9FA
BCD4882D
BC1563C7
3BE7EA01
BDD16BC5
BD85964B
BDB69CC8
BC26625F
BD96B281
BD7B8FF4
BC356464
3E187D05
BCA64E64
BDA523D1
BCF37DD4
3CBC9BCA
BD7B8435
BD52693D
3D5C875F
BCC90753
3D477F68
3CAEB845
BC22C4CD
3D63A00E
3D8D55F5
3CC91CD3
3DC0ECA8
3B87CFAE
BD8EF6D5
BD51D76C
BDACE9D9
3D15E43B
3DD9BC64
3D10BA29
BD9066E1
3DB0D273
BD199E91
3DA07F0B
BDC102D2
BD98D454
BD87D9E1
BD6E3766
BCC0165E
BD3B8922
3DF8EA6C
3C41A342
3D700BC0
BDC2AA84
3C66838F
3E010A8C
3D0B917D
3C926C84
BD9AB473
BD8C2B12
3D40F3E1
BC99266D
BD069636
3D7E1CED
3DF97D6D
BD68616F
3D805F49
3DDB1DB8
3DE523A6
3DA85BED
BD7D389B
BDC7670F
BDC07B8A
BD64F573
3D7F17EE
3D1DD0FF
3B715F69
BD55C822
BD9EECF8
BCFB767F
3C67460F
3DB1234D
3D98C614
3DACC722
3D058519
3C914138
BC91616E
3DC9983E
BCD09748
BB9019FB
3DA518B0
BD0E379E
3D02A297
3B1CD0BB
3DC66D1D
3D2E006B
BD202E7F
BD097DB1
3CC9CA81
3D9AF60C
BDB8A772
BD9897D0
BD013C66
3D8A2C4C
3DA22A05
3D9D7935
BD12D40D
BD8BB35D
3DCFF1D6
BD990C21
3CEEFB48
3D92DDBD
3D8B5408
BD3BA72E
3DED3F8F
3DB7FE14
3DDD98D5
BC9AE980
3C72776A
BD04214E
BD64C947
BBE54CA1
3DA64346
BC9A26C4
3DB15C64
3D82599C
BDAA5308
3DC5FFEC
BD573F00
BE0DDF6E
BDC21BE9
BCA1FD43
BD974B01
BDD0DFA3
BDC9027F
BCAD84A2
BCC11B1D
3DEC2B70
3D051743
3DAA538B
3CEE4A9E
3D906157
3CCCB82E
BD9E11C0
3D7CFAB8
BD857719
3DEC4B55
3D3FA9D6
3D6C9DB5
3DF35ECF
3DD91BDF
BD7D0C12
BC26C77E
3DC3D9B1
3DFD2992
BDB5D311
BE12E341
3DA1FC33
BD7A5D4C
BD8B1408
BD6E14F5
BD8B703A
3DB2F00C
3D133840
3D9A13E5
BAAA8614
BD9E9BFF
3D972611
3BB5D2A3
BD8D954C
BC2BCB1C
3D8DD276
3D4D8420
BBEC29B0
3D977C20
BCAB6235
3DDEAD2A
BD344FD8
BD8B0FEA
BD9FE6B9
B90B893C
BD3FFA2F
3DAA01AF
3AA28F51
BD5849B2
BD320682
3D771B43
3BAE78B9
3D84E95B
3B0DA90B
3C8346C5
BC923A0D
BD51AFEA
BB35DA5F
3D017639
3D5383BD
BD008AEB
BD6AD6F3
BD93C651
3B95AA56
3D1D900D
3D8A0361
3C8F264D
3D8CB04B
BD9C8A4F
3CE25924
3C2170D8
BD7CBCAA
BD8A8057
3D912505
3DDC873A
3D9077CD
3DA5CF09
BD58CAA3
BDC18899
BC367180
BD879B47
3B328010
BD5FD053
BDAEEE25
BBDD5B2F
BD29002E
3C44FAB2
3D702142
BDA1D205
3D900E0A
BC8D4133
BC7B56DC
BD839095
BC98895B
3DBAA9EF
BDA78C62
3D9A502A
BD9E1691
3D60B3C1
BC15CF25
3D7F0098
BCF018EB
BCB9415A
BDCB0644
BD926EB1
3D6F6749
3D804BED
3D72CFB5
3D04380C
3DAE046F
3B8CAF80
BDA61214
BCA060BE
BC000499
BCD65E4A
3C712A0F
3DD3578D
BD61544A
BDEEB33F
BD6A39ED
BCBACCD4
BC4649E3
3D24F25E
BC08C75F
BD9A0F08
BDBC6AC8
3DEE24E3
BD381A33
3CF6C4B6
BD0A84A6
BD37FE18
BC71370D
3D157311
3D004762
BCBF34C8
BCCE7C60
3CBA082F
3D906866
BCDBCCFD
BD13BDEB
BCB15EA3
BC70A5B8
BDBA1D97
3DE2957F
3D8A18AA
BD4C4CF0
BC28F799
3D63E31B
BAB45951
BD9429BE
BD31DC6B
BCCD99BE
BD96DD92
3D059006
BDA2B706
BD25461A
3D1DD292
BD24D256
BCEAC269
3D494B3E
3D0D222A
BD8CFA9A
BD47D73D
BDA59C79
BDB48C48
BD170643
BDA13815
BDAC14F9
3BB50913
3CBC12CF
3C6B0F03
BD9438A7
3D3B7F92
BC5EC87D
BDA73CE3
3D03D791
BCFA6846
3D5BFE18
BCD69C4F
BD00136B
3CDC9D1E
3DBF5DA2
BC2F436D
BCFF1094
3D4873D6
3D839535
3D3D1FF4
BD63BD4A
3D9E6E2A
BD4086E7
3D101D08
3DA97BF5
3C4C9DAD
3D8656C2
3DA9E55A
3D3E8704
3C0A5200
3DB55F6E
BDABB5FA
3CCF7435
3CD6AABA
BD4C5137
3D274940
BCCBB89E
BCE6FFBE
BD8CA4F8
BD0DB6CF
BD17483F
3DACE416
3BDC69AB
BD7E8A7B
BD01DE00
3D727549
3D9E0472
3CD2F995
BD5D9A42
3CF55BF5
BDC5A07B
BCE8EEC1
BD8D6B56
BD01415B
3DA1B602
BDB26E97
3D90E470
3B65B249
3D99597B
BD924295
BD83AF32
3DC321F8
BD94E6CE
BD8BED8F
BCBA4FEA
3D94D1A2
BD79F41F
BD7EB57C
3CD162CF
3D65BB34
BD80FCD9
3D26E552
BDB3E85C
3AFA0531
3CEF7EED
3D0E0A86
BD83EEB6
BD6EE855
BDA00339
BA1BEF03
BC2E56EF
BCE84CB0
3DC8B69F
3DA61DF0
3DB87E2F
BD79E43C
3DBBC339
BD5844D9
3D9D19E0
3C780A2A
3BA603DA
BD155680
3CCF951D
BD9C8B9F
3D8ADFC6
3CA2E860
BCD3E663
BD833B0C
3C81AB7F
3C3B9A30
BCDEEC23
3DB743A7
BDA504C3
3D8C223C
BCEC97DE
BC3CCEBD
BCA7EEA5
BDC1AA7E
BDBADB38
BC0F6532
BD6AEFFA
3D8366F4
39EAF864
BD6F2E82
3C8EF55D
3D9EB041
3DBA964D
BD09D1FD
3B52A842
3DB2CA7F
3C8003DD
BA85506D
3DB16A60
3B8FE2EF
BD68ABB1
BD996138
BDA6ABFB
BD138BEB
3B796B5B
3D1C0985
BD73B0A6
BC80C705
BC0C0C86
BDB71C87
3C9B4A27
3CFA2A0E
3D9441F5
3D5DB00D
BD0FB743
BCAC8427
3D9C061F
BCFA3CED
BDD90C2A
3B4F4616
3DA7D165
3CDFB16A
BC2FCF3C
BB3771AC
BCF7B175
BDAC8B82
BD679950
3C90A6E2
3DA8370B
3DAB3F34
3D31FA26
3DB33A74
3DD12F4B
3D36C91D
3CAD7B71
BD2134E0
3DBB4BD9
BCFFCD9C
BD00A032
BD156DFD
BD4F501F
BD3436B3
3D91B08E
3D8BABCC
BDAB4A71
BDB00F68
3D23F30B
3B8DFDC2
3D1A163D
BD592DB7
3DAFDA30
BD8ABEFC
3CA451D5
BCF654C0
BC9101EB
3CB9B353
3C4B10BD
3DC4F303
BDAE27CA
3D6B8D65
3D514114
BD5C4E24
3B5824CC
3D5AA90F
3CC1D9F4
BC3743E1
3D4BD705
3C02614E
BDDBEA48
3D92B33D
BC70D6BC
BD1A45D4
3D919E57
BD9D46B8
3D953C59
3D820FF5
3D453A71
BD33225F
3D9EBF41
BD86CDFF
BD71AB52
3CA0290A
BD1B1F3E
BCE812AA
3C2059C8
3B1B6D6E
BDB5235C
3DA29E27
3D208D1A
3DAB5B75
BD957F7B
3D21022E
3CFA86CF
3D258E17
3D3A11E8
BD35260C
3C0460D1
3B857820
BD48EEC2
3C63323D
3D165207
3D2AFBC2
3D522196
BDDBA0A4
BD8B66E1
3D79B944
BD8CB0F8
3DDABEE2
BD4D503A
BD4EDA89
BD683DCD
3D2AD8EA
BD460241
BDB3F928
3D9390C6
3B247BE0
3C828F81
BD9520CD
3CE475C2
BD8F9C28
3DAD8605
3D137585
BD82D65C
3D5166B3
BC8FBA74
BD7F0DE6
BDA463D8
BD8BAA8F
BCF55ABD
3D9FD826
3C74D1A8
BDA3DB71
3DBF3EB1
BD4AD708
3C7F5CB2
BD110D6F
3D5F0090
BD3845F8
3DBEAAC2
3D595ED0
BD2D747F
BD6C45A3
BCED974E
3DEC7CD3
BD928F01
BD5BD32A
3D52750D
BA837CA6
3DB60E5B
BD5CD233
3D737216
3D7759F0
3D8B6B85
3DDB2C43
3C87A31D
BBF7C1A2
3CC75018
BCC1ED82
3D320BEF
3D9D4CBE
BBED4183
3C9DA2AF
BCE25A7B
3D413AAE
3D09FCD5
BDA28C11
3CB282A2
BD95D1F9
3D22C008
3D46D06E
3D648147
BC964176
BD8B6778
BCC99032
BC8DC588
3CE394F0
BC73EB46
3DC51092
3C15BDE7
3C1D6CCA
BD80B48F
3D067B2B
3BA7E83D
3D04CEB3
BDB738DC
3D1B0FA3
BCD9E4A9
3CF3007C
3D0D0A58
3D5EB4F3
3C1E6B63
3C91453C
BD96281E
BD988ACA
BD5D10BE
3D7DC8E0
3DE3A320
3DAB9078
3DC76DD8
3D1C4DF8
3DB314FD
BD959B45
BCC1F4F0
3CA466E1
BC95B7F8
BD870C42
3D0CBEFA
3D952F8A
BBA767CE
BCC14E94
BD66C0CF
BD87D313
3C0A3C50
3C4F0B3D
BD96CD3A
3DB40E70
3B517284
3C6AC394
BD99F8DC
BD601AB6
BC2BFF96
3D3F92D4
3DABA52E
BD2F6F6C
3D6568C1
BD2D5584
BDB7C532
3DC64DD8
3C673D0E
3B9437AB
BB8A55BA
BCB65B43
3DB38601
3CC55CE1
3D9DA025
3C88FD8C
BDAB4187
BDA56B4A
BD884554
BD519D6C
BD76519B
3D145BFA
3D4D833A
BD8EEFE1
3DB0FA68
3D1BF508
3D1DDFC1
BCB1357E
BDC38369
3D6BE809
3C26B9AD
3D9ABA72
3C8AA2E3
3D6EB663
3E045002
BCF9FD6C
3C041B39
BD6D5BF7
3D8A13E5
BD98BB99
BAF9E691
BAFA908A
3CA1955D
BD329813
3DD16B94
BDC9ED4B
BD9501BC
BDB668FA
3DC03052
3D70C16A
3D3997AA
BC98D6D8
BD8886DF
BCBDE5A4
BDBD1751
BD176AAC
3C945149
3D81C2AB
BD6FA716
BD2FD1D6
3D853043
BDB7FE08
3DF7511B
3C4D0B47
BD942788
3C2C63A1
3D82DD43
3D9CE433
BBD32C24
3C8EE65C
BDD94FDC
3C88800E
BC767601
BDB5468D
BD05FAA4
BC48B1A3
3D26B201
BCEDFB99
3D848D84
BD4E7C25
3A859A0F
3D7D9DED
BC8E2EF7
3D8D0A16
3DBD9578
3D03594C
3D86653C
BD0CEC23
3C10D8D0
BBDC4E66
3D4CE107
BCD8B03F
BD33FBCD
3CD4F78B
BDBF6236
3CBFD94F
3DCEECB2
3C88856F
BCF4CAE3
BD0A9F6C
BD049261
3D8B2857
3DB5DCE5
3D7C8BC6
3DDBB856
BD99FA56
BD986EB1
BD06E2C5
BDAE577C
BD0F0E5E
3D46B0BB
BC7C2A29
BD84525C
3C81D1D8
3DCA6E43
3CA746E5
3D38C490
3CD5363B
BD0F9E22
BC30CB17
3A87F031
3CEF992F
3C68DFCD
3DAE7FAF
3D91D30E
BCCF8F41
BD9B4040
3DBBFD8E
BD709A55
BC8FBAF6
3D0AE707
3D855876
3D8987F9
BC2749FC
BD9AA12C
BDB32DCC
3D9E7DBA
BDB215C1
BDA448F6
BD3C5B82
BD238FB9
BD15FCD5
3D053802
BDAC38BD
BD6A2604
3DD1CB16
BB87718D
3C40494A
BD410090
3DD430B6
BDB25C62
BC6DE406
3CA4B7AB
3D0F7144
3E018F96
BDF08CB1
3CBEDB8E
BDBC4031
BD461F5D
BD2AD236
3DA7573F
BD024F4F
BD11FE61
3D90325D
BD883295
BDCD6194
BC219475
BCDE1ABF
BD9E9F7E
3C358800
BD995D5B
3CC2A6BC
BD413F99
3DB471BA
3D99F00E
BCB1BFD3
3C7CE243
3BB8E2C8
BD6C00B4
3D857CCF
3D6E9CAE
3CE01716
3C9AA4B4
3D4D7ACF
BCB01387
BCE844C3
3AA69722
BDAE4554
BDB4F26C
BD9A8CF5
3D38662B
3AC228F9
3D402BE9
BD860D8F
3DBCA903
3D4A502F
3D94CE54
3CBE56CA
3CFB3F9D
3D91FC0C
3DC20496
3D2411CC
3D15A6FE
BD85E0F1
3CBE3945
BD9FF2DD
3D25FD8C
BDB50129
3CB211E2
BD8DEAA2
3DED37C7
3DD6334A
3CAF965F
3D0FB9D8
39F31731
BDD37306
3D4CAF79
3CDAB108
3C13D1A0
BDC9CF53
BD8B28F9
BD909DD7
BCB20B8E
BC1341A2
BD8CFD94
BC7AA51F
3B59DC9C
BDD1E0AD
BC5D2AA9
3DCB802A
3DA4478B
BD84613B
BD95B968
3D40CE29
3D049CB6
BD833AB0
3BD07C3D
BD84D650
BD70A3BE
BB911F75
3BA9FD8A
BC996C3B
BD4648E5
BDB12C52
3D0F528C
BCD9A74D
BDA5A476
BD7B4328
3D158E17
B97E3462
BDB40846
BD451916
3D6BC4BB
BD6876C5
3C104F52
BD98FBEF
BCF9210D
3D3467CE
3D97DD34
3CE8016F
3D8FE258
3A91C94E
3C98936F
3D878640
3DAE46ED
3CA11275
3B7770FD
3D06D3B3
BD31B8D0
3D904BB0
BD112625
3DA9E841
BD3EC057
BD9E785F
3D04577B
3DAC1A76
3D90BD60
BB1C040E
3CFBE79F
BCC28898
BC398CFF
3CE0A79C
BD6615CF
BB268276
3BD0E58A
3DA1479D
3DAFCDDC
BD48C272
3D52B587
BC40A813
3C824B89
BD63228F
BC6DB351
3CBD0E17
BDB7330E
BD8E572E
BBAC211C
BD183FBB
BB1D358A
BDA6C606
3C793788
BD4EC4B0
BDB36580
BD5C8B4D
BD8E4776
BD0A1FCC
BDA8B997
BBAC3ABA
BC40F4C4
BDA7BBC6
3D90FA83
BCF1972A
BD686C92
BD939510
3D2145EC
BD5A701F
3D80A5B4
3DB3BEE6
3C47A5C6
BD8189F7
BDA6891D
3CB5B032
3D131832
3D85F04A
BD957160
3BCC4272
3D75214F
3DA937F0
BCEEF8E6
BDAA634A
BD28BA03
BD929D5E
BDAC072F
BD3B06BB
BD1DC954
BBD54F10
3C908F17
3D3572C2
3DAB3829
3C3E6D69
3DA28B65
BD9BB844
BA057C6D
3DA36A85
BD51D26A
BC129A6E
BCD2C8B4
BCD07B98
BD2BDDAC
BC888E40
3D3E432C
BD42C889
3C0C7E7F
BD8CCDD7
3D94C59A
BCC291E0
BD2F3A51
3E60A2FD
BDA6B8AA
BC2C32ED
BD7E4104
3D6941E9
BD921630
3E032A9D
BDA2C5B6
BD8AC302
3D36A698
3D5517FD
3C85BF21
BDD00EC2
BBC1C95B
3CCE4B89
BC2844AE
3D359D38
3D2E3A15
3CA08F5C
BD372757
3D0994BF
3D67C175
BD3FC45C
3DA2590A
BC5BFFCC
BD78C22D
3DB77B9F
BCC5E963
3D5A2881
BD39F482
3D148EC7
BDD0930E
BDA7BD48
BDAABAC5
BDD350BD
3DA6D762
BD3C90D5
BD5EF603
3D834F19
3D567A6D
3C9A15FE
3C0FCD0C
BD8140A4
BC056F7B
3DB90CAC
3D97120C
3DC942B7
3D774CF5
3D7219AC
BC9243CB
BD96AA94
3CD4FCC6
3D98C1F9
BD655ABE
BD3DF189
3DE70FA2
3DDB39EA
BD95BDF3
BDB5A0DF
3D1F8F54
BD3C1C5D
BDA41BB3
3DE37116
3C193A8C
3DCA2AEE
3D02B26A
BDF70B7D
3CCDDE61
3D570BC4
BDFACEA4
BCF4C7E4
BE1174A5
3CF66133
3E2D49B5
BD1F1633
BD823D80
BAAC98C0
3DA692AD
3D8E880D
BD934683
3DD899EE
3BECE52D
3DC4AFDC
BCA35D7D
3D701DBF
3DBB18A7
BC6216C1
3C1B2C90
BD82FE5F
3CEC9FE5
3D0C0805
BE00D337
3DAA8E07
BDAE33AD
BC9603B1
3D461809
BC1A7911
3DBB9A25
BC19108C
BC0A41AB
BD9FEFBE
BD616712
BC8C70E0
BD6466FA
BB4165A0
3CB1A798
BCECBB85
3D8E81E8
3D18EF47
BCAC42F7
3D380581
BD7765FE
3E1FC0AF
BDAD9FF8
BC229269
BDFE418B
BDE87A36
3C579E04
3D88EC08
BDBD3FDA
3D508118
3D8D0458
BB8B922D
3E20E12A
BD89B374
BDAEA040
3D13C53A
BD33DE75
3DC9E0C1
BCD86A96
3BF8748C
BAA9BD16
3C2AB417
3B327770
BBDA6B00
3D86BA2E
3DA5F6AE
3DB4FBC4
BD1B0973
3DECE319
BE01C807
3DD731AA
3CE5BDE1
BD4C0149
BD575910
3D4441C1
BC8DD330
3D983C2B
BD7D598D
3D49C0AC
BDB1740E
BB423E2C
BDEE4FB4
3BD7D0E6
3DE0150C
3DB55E30
BDBB416B
BC97A96D
3CF7503E
BCFF6089
3DE8BD96
BC95C365
3E0AF1EB
BE0899A9
3CADB5F9
BC95EBF5
BDDE7E03
3AC7CCD1
3D413975
BD12A9E8
3C9EC233
3DBBA21D
BD71E02D
3D02CDAA
BC046492
BD65D90D
3DA02A5F
3DABE213
BD50C125
3D67823E
3D76D2D7
3D64EF0A
3C78CD93
BD3E2FF5
BD2AD2C3
3DAE3A6F
BD6B8F97
3CB171BE
BD1ED3CB
3E1ED75D
BD40EB71
BD10CD9C
BD48174C
BD693473
BBD596B8
3D2CF8DB
BC83C793
3D866D68
BCF7D5E5
BCE61F5D
3CC2F915
BDE4B89E
BCF71C83
BD8DCDCF
3D92B2DD
3D3212FD
BA9A23CB
3CC2177F
3D0D9332
3DE2BB67
3DA24DD1
3D5732DD
BD6A4B82
BD8A4EF6
BDCBDAE9
BBD70EA6
3D9C4A92
BD3AAB3D
BC0232EB
3E08733A
BD24F9AC
3D59B139
3D3E44BF
BC8F57B9
3CBBE871
3DD888BB
BDBDF428
BDC99F51
BD91A1B5
BD4E273F
BACA3582
BC660365
3DA5DB92
3D0CCE84
BD8DC069
3D7611A2
3D8EEE7E
3D035126
3D114A7E
3B90FE7C
3D682386
BDA6C0AE
BD0048BB
BD4C01B7
BDD7AB3D
3D9E5EC3
3D72614B
3E18D1B2
3C74C462
3BCB2551
3CF52545
BD791FF8
BE456317
BC42ED9C
3E109439
3DBD6F00
3CA3B7D0
BCDD8905
3C51592D
3D9F51B2
3D7E1FAB
3D2C7409
3CA3D610
3D1BF257
3C7D9072
3CE3D94C
BADB0F0A
BD33B605
3CF7D505
3D425B8A
BC5A589F
BDCF62F5
BDA0149E
BDDD0B5C
3DEEED0A
3DE6EFB9
BD780888
3CBB8BE8
BD9D07D4
BD1BE239
BD8F3DBD
BCBB9F91
3D24DC62
BD6729FF
BD850302
BD660D7C
3DE2CA9C
BBC9817C
BD93AB37
3DA57359
3DB116C4
3D7ECCDB
3B84607B
3D2AD004
3D4F0C3F
3D3D94B1
3D5B6D1E
3E53C0D0
BD851630
BCB28781
BD7593D3
3D61E1FF
BCF91382
3D7824B2
BBC5508A
3DA18BFB
3CA6ED12
BDD41567
BC2B828F
3CB57EB2
3D8E1C07
BD887F24
BD92E47F
3DD3D9F2
BC169421
BC70145E
3D63F3B9
3D0E631F
3E2F91F4
3C92D483
BC92078C
BD3D035D
3E34F063
3DF0B3A3
BD5639B5
3DCBE571
3DEF85EB
3CEADB2C
BB66FCCE
BD7ECD1F
BD8E1EE9
BDDCCB0D
BDD26259
3D3215E5
BDA20BCE
3C1281D3
BE214F67
3D0A0757
3BBE8AB9
BCA96625
3DC7D822
3D05CCAB
BDDA4291
3C109CF4
3D8670E9
3C49461B
BE0C536B
BA9E69E0
3D9C4E6C
BD8649B9
BDC1DD3D
BD9BA5AE
BD25E888
3D75393B
3DB7446B
3CED6888
BD903174
BD81A805
BD585E51
BD01D564
3DDFB627
BBBB89E0
BD21D2A6
3DA41BD4
3DE66315
3CD0D41B
3D48B715
3DCCD59C
BDE9EA8B
3D839920
3D013F4B
BC487C9F
3D505A70
3D91B357
BD37F21C
BDA99CBD
3D9BE8B3
3C58C70F
BBEE3973
3C219685
3D410334
3DD8C88E
3D7FA4F2
3D4147C5
3E08CF6A
3D8CE120
BD8D8634
3C104CD0
3D461549
3DD7A0AF
BD8B72D1
BDF137B4
3C4BD4BF
3B80C8C7
3D11F4CE
BD2D51C3
3D419626
3DC30436
BD83CDCE
BD868382
BD987C1B
3D86F35C
3C612861
3CAC8AC8
3DC72132
3D22E12B
BD12CF42
BC97D092
BDBB7190
BC3F6C18
3DCC66F7
3C099BA3
3D42B097
3C9720F6
3D80A5FC
BDDD1F06
BDB2DFC4
3D28773D
BA243549
BD827C38
3CAFF41D
3DB26FD6
3D2C9B7F
BDA323D1
3DAC0BFD
3D8299CF
BD37632A
3D483F1E
3D9863B8
BDF61C19
BD2F9375
3D154C32
3D29C8BF
BC9C47E0
BCA75BDB
3D89E83F
3DBD3C40
3C555E63
3E436E3C
3BB55857
BDC8E52B
3CD65929
3D7EB20B
3D96B9A1
3B1B51EB
BDDDED5D
3C929F7C
BDC1141A
BDB9C9DC
3DD7A98F
BD93A59C
3E2F54DC
3D9B68B5
3DDE3C4E
3D5B2592
3DA4DC83
BE164F2C
3C999E5B
BDA51D3F
BDDD7872
BD4A88F4
3D52E5A0
3CDE8AC4
3D407A61
3D99BB57
3CC2D5B0
3D43351A
BD85119F
BD7CE11D
3DF7D821
BD848D46
BD5221A7
BC94EE41
BD8831CF
3E2A7EB5
BE00D392
BDB3643A
3D2A9BB9
BDA3C4AD
3CCC7B3C
3D4504F8
BDAE2598
3C268F45
BD7D88C9
3D6485B4
BD160235
3D0B6A4C
BD92AC79
BDA5BDA2
BD08B3EA
3DB22D6A
BCBF3E9A
BD88DF45
3D4C9FE6
BCB303D6
3D7C755F
BCC72E9F
3ACBDCB6
3DC1F3DB
BDB6F36E
BCF6EE53
BD8A8EE6
BC1C6991
3D21FFF5
3D52CF52
3D692962
BC9030C6
BD93C978
3DA979DE
3CBCECDC
3BFF1AEF
BB958860
3C09A372
3CB81092
BC9036AD
BD2B5CCB
BDBA7A05
BC14FE03
BCBD5B53
BDB60647
BD8E2276
BCB87C11
BDBEF340
3D26CBB7
3CC7B4E9
3D80DFB9
3DC900A1
3D2FD347
BD9D5BA2
BCE4D213
BD305979
3D3864F5
BCE5C3FB
3D5E4AFD
BD095903
3D641C11
BCED72B3
3C59B312
BAD36043
3D2CF4F4
3CDD3400
3D8BECFE
3DA4204B
BD3991BA
BD34D114
BDA9F02D
BD16CB57
BD90DBF8
BD8A2DB3
BD18ACB4
3D17CFED
3DDEF506
3BF601E3
BDAF347C
BD148F6A
3DB4EDF3
3BE9F936
3D86453B
3D988E2C
BD01340C
BB54095D
3C0A7A2D
3CECFBC4
BC917C3A
BDAACB07
B8AE6B40
BDA121A7
3DBEB4E5
BDA1D48D
BBB8D2F3
BD604D6A
3CE0AA50
BD967772
3D24A490
3DAE410F
3D408084
3C801972
BDB5A62B
BD8E1BBD
3D2F5EFB
3D30419B
BC49A3C3
BDCD100E
3C2009D8
BDAFEF1B
3D5B6445
3DFC1D75
3D0B4F46
3D2F7811
BDD77C54
BDA16E7D
BD878935
3D113F98
BC552F0F
3D8660ED
3D002F05
3E0C5D09
BD68799F
BC1CFDC1
3D88B554
3E261A72
BC2C5428
BCF67662
3DACF193
3D08D1AB
3D38F903
3E18808A
3D34F7FF
3D3C5F57
BD3ACCC6
3D83E1E5
3DEF98F1
BD082531
BD7064D6
BDCE95CF
BE0EDEF3
3C65DA77
3D549F8E
BB3F3881
3D74EE8B
3D23EF3E
3D8354B2
3BB4A6B9
3D03DB81
3E2861EA
BC8099F3
BDA02A49
BDE5DFE6
BD8720F8
3C82D8D8
BDA75CA3
3DFAEAAF
3D964840
BDACAB5A
3DC4E926
BD026F83
3D221AC0
BBA44A96
3D372B11
3C450645
3D7A06C3
3DC7C1CD
BBCDD884
BC7FDDBC
3D8F6B21
BA8899A3
3D927CDF
BD05BE9E
BCD84A9A
BD9B0ABE
3D06B564
3D290423
BD384BB3
BDC1EE88
BBD46E36
BCF7EF76
BD262918
BC9CF45C
3D4BBB33
BDAC5997
BD5DFDD8
3C995258
BA3F782F
BE043E1D
BD6C49DD
BDBCDA81
3CCF3BCD
BC06AAF0
BC95A7CB
BE5C8CC4
3D10FDCF
BD48AC4F
BCFB7759
3DDE28F4
BCEE9D15
BD823894
BCEF33D2
3C21B4B5
3DD798C9
BBEFD0F8
3D25BCE8
3DF9C785
BD0CE999
3DCEB28B
3D139891
3B8EA7F2
3CE3DE9A
3D81C622
BBDEC43A
3C87816F
BD6E2E62
3D8FAE50
BD375A06
3DDCD75E
BD2E64FF
3D69AB63
BD52A18A
BD8483EE
BD9AE42C
3D766C48
BD8C2EFD
BDFC2BCA
3DEA2508
BD0F5080
BDA32EF9
3E0097F2
BBCFAC8D
BE0914C7
3B659204
3DF432D0
3DAEF4B3
BD67D321
BD662969
BC9B93F9
3E025842
BD235905
BDA38B77
3D19F879
3D2D46F5
BD559594
BDA7AE64
BC8D2584
BDABA8E4
BDB09BDA
3B72C858
BCAEAFC1
3BC98874
BBCFBA91
3CFDA406
3D2F6FCF
BD25B5AC
BD0AF13D
3D43A767
3DA00964
BD20D601
3CB12B6C
3DB13D56
BDB52760
3C915C6E
3D810397
3D744644
BDBE208B
3D317707
BD6C62D4
BC80BF6E
3B5A753C
BD558EF7
3D7A5DB4
3BECF858
3C49FAC4
3D69D3DC
BDD41F34
3AD5A129
3CC15CC0
BC045E8A
BD05D388
BD52958D
BD846997
3CC11599
3D331C5C
BCBF7B17
3C660873
BD69F372
3D5F983B
3C99CEED
BD2C43A9
BC5F71D9
3DB52D3A
3D304346
3D33542B
3D82FF5C
BC8399E3
3D7BB978
BAEAD97C
3D4A4E36
BCDFFF8B
3CEE8B19
3C94BAB3
3DB47371
BC29865C
BD81B2C7
BCAA3B44
BD842DD3
BD9858FF
3D19EE6F
3AE4E9CE
3C8DFD31
BD9786D7
BD33D0C2
3D885F2A
BDA7D695
BD727D5D
3D994BB4
3BF0ADDE
BD8BEACD
3BDB05D1
BCEE926A
BD519B32
BD21344C
3B8EA4FC
3CE3D283
BDB4BFFA
3DB6A91B
BD1086AC
BD97303A
BCA81D25
3D1ACE75
3C0B9F13
BC072C51
BD8884DB
3DA9918B
3C819183
3C5E3D9E
3B8B6E5F
3D282845
BD9DBC36
BD4B5086
3BB4968E
3CBC488A
BD0401D6
BD19F4B9
BDB65085
39AC09C9
3D4BDE5C
3D9802B8
BCD7963E
3CF494C2
BDB2A1EC
BC098001
3CF9EF6A
3C5C71C1
3D947D30
BDBEF3FB
BD855700
3C891C0D
BD2F4AFD
BDAE4C74
BC9799BF
BDB5978F
3D425E59
BDAC0A0A
3BCBB74C
BD8123AB
BD728B18
BC90EF1C
BD92CA6B
BD04FC94
3DBDD82A
3B54B8BD
3CE369A2
BD76A406
3CF695A1
BD6D3E84
3D6CA0FC
BB7BE651
3D7C1132
3D77A5CA
3D8E9C67
BD0220FE
3D0A7EB7
3BEA8E33
BD83D809
BD831E6E
BCDCBB08
3D49E9D6
BD5CFDD7
3D9F6B6F
BD4B6E79
BD48FF33
BC824AFE
3D1B041C
3D856F01
BD997D39
BBA6DBE8
3D76B43A
3DA80AA9
BD1552D0
BADE0C58
BD6C8B25
BD331158
BD8B9A2C
BA42154E
BDAAE631
3DB4E203
3D13B804
3D8420EE
3D96E4EB
BD508F62
BDA9899D
BD650A58
3DA63A7D
3D3A8B7A
BCB87674
3D614D5E
BD555809
BD5080C4
BCAD1089
3D57B9F8
3BB9224F
3C1BCA74
BD8C162E
BC04EA2E
BD8A2A88
3D9E55E4
3C0B6AC7
3D156068
BC03AA3B
BD71BA7A
3CB00961
BD9EF518
BD2466E9
BD93986A
3CDD168B
BDB7FA43
3C3D1E81
3D963DB8
BD9BA4D6
BD44090F
BD00F57A
3D43DFCC
BDB60C68
BCF60745
BCE3A467
BDA69FCC
3DA08C68
BBD977A2
3D2CBA83
3D37AD5E
3DAD8F23
3D126014
3C4B7201
BDB4C57D
BDA4397E
BCB97948
BC994D1D
3D69145C
BC96A3A5
BD9A19A0
BCE59D7D
3D860895
3D353CED
3DB0DA63
BD144413
BC75C6C8
BDB03806
3DA24010
BD8E2357
3D70D4ED
3D29A2E7
BD6AB03B
BC4FA0C1
BBE5F680
3BE6C308
3BD001E4
BD5A2FF9
BC0D88B9
BD8F5CAA
BD1A9DFA
3D26B40A
BD85D4FF
3C68E8C5
BBF6284A
3DA37156
BE0B7664
3E0643FA
BD308544
BDB61496
BBD3C50B
BCD88F83
3C1946F5
BB140C46
BC9D72A4
BD4F2E2A
3C148CA6
3C3F5CEE
3DCF1B12
3C403764
BBAE14A4
BDAD1C43
3D8D9C27
BC4EBAB0
BD95140B
BD423AFF
3D1F1A72
BD462474
BD626322
BDAB6EC2
3D032C5A
3DD9C057
3D9279AF
BD257A9E
BDC91C5E
3CAB664E
BD5ED9A9
BC62CAE2
BDA5D54A
BBBF9069
3E08C55D
BD9D80A3
3DA93C39
3D9F5F4F
3DFE6AC0
BCF0E342
3D5BF3DE
3D668FD0
BCE42D04
3E2A8C2A
3D74BEAC
3D4BDDFB
3D0D4A5B
BD8BAE47
3CBCC262
BD971EBB
BD527FD4
3D9C80CC
BD5A1068
3DC7AD17
BCE0928B
3BA4E5C9
3D97D201
BD2BE06F
3D207FB5
BD924F79
3D038163
BD7F0BD3
3DCE81A1
3D92A7B1
BD640085
3D8464D0
3DC16F04
3D0901F1
3D5C5E08
3D636925
BD8C9B8A
BD70DB61
3B5FAF82
BCC47666
3CFAA103
3CCC7CFE
BC6465DB
3D78D0A4
BDDA557C
3DD9278D
BD8E2521
BCB34993
3BF161BF
BD9C5AF1
3C57F075
3D8CCF28
BDA12EA5
BD771FFF
BDE719FE
BE0BFDF0
3DFFA0B1
3D949B1E
BB736268
BD6AD88F
3DAB9099
3D381D9C
3D09882F
3D3C4B19
3C76AECA
BD0667FD
BDEDE66C
3D16CE7A
3D1BC79D
3D5D5889
3E3B7338
BD86D0FF
BE027975
3CA59ED7
3C17A264
3E146D38
BD824CE4
BD907DC9
3D91F425
BD490027
3DCA41EB
BD57C336
3D183EA1
BD16C816
BD0BD5A9
3C21C855
BD9F7A98
BC7C3530
BDAB9C04
3CC60750
BBCDBB93
BD94C9BF
3D61EF8E
3D20F4A9
BD7FDCD9
BB018DB9
BCFDA800
BD344946
BDAA719A
3B856A62
BDA09DE6
3D96E7FA
3CF0E3F2
3D9EB4EB
BCE5F7FC
BAB22BA5
BD406044
BD989560
3D7F122D
3DAD1D75
BD925B5F
3D9D61E4
BDA9D009
3D1A9D2A
3DA14B23
BDA0CF74
3D02CF67
3D28ADF8
B9FC5948
BD51BAEE
BD53B5F0
BD248828
BD1229EA
3DA197B4
3C87F972
3DD76B2A
BB962782
3D15A4A8
3D674C00
BCA00F5F
3C868DC3
3D0E9FE8
3D93C3E6
3CB20389
BDB4733E
3CBA9734
BD7A7EE4
BCE11745
3B81F6F2
3D957AD9
BD451396
3D0D7BBA
3D233453
3D211935
3BE5B052
3D2477C3
3D923F6A
3DCACF15
BD67B179
BC0E01A7
BDA93A5F
BDAF966D
3D0D11F7
3DAF79E7
BDDA74A4
BD7A0500
3CE36CB4
3D7B9148
BDB18914
3CB14E32
3DBD374A
BDB1A7D9
BC715646
3D12E93E
3D9174DC
3D8F45C2
BD81E802
3D32357B
3DC6D080
3D9D68F6
3D9064E3
BC8AF5E9
3C10E2F8
3D916770
3D8959BC
3CED662C
3D775F06
BD433B41
BD9BD034
BDDAD39C
3D31F1B6
BDBC4E97
BD827860
3DB40E23
3DABC18A
BD5E8C40
3D2DB7BA
3CA53BC8
3B9BCBAD
BD9BA7B0
3CE2F461
3D6F02C8
3D0C4BD7
3DAB34F4
BD0FA58E
3D7323F1
3D8B5371
BD7111BC
3C4F8704
BD188C19
3D8A1008
BDB70606
3D939068
3DCBD8FF
3DB2455B
BD9547D1
BC8C157A
3DED0B33
3CDA66DF
3DC9C961
BDFE862B
BCC6D4F7
3C86A64A
3C25DEB3
3D25B160
3DC495A9
3CCC6B84
3CFE7259
BD1A84CB
3B2D3972
3D97B5E9
BBF51330
BDFF6481
3D760763
3D15FE19
BC7786B2
BD34C123
3BB1B3C8
3CD04E43
3D5B54FB
BD2CD995
3DC8EA0F
3D64BF73
BD466A8D
BD21A265
3D616F6B
BDA1738B
BD930678
BBA464B3
3C9334C4
3D6EE38E
3D8A62C4
BD2B2D93
3E2B47A4
BBECCE53
3D847D63
3D1564A2
BC9F6B02
3D59EEA2
3DFB6004
3C2E4A4B
3D83D8C3
3D70E7CB
BD4544E4
BCD931E5
3C4ECC2B
BD1133E5
BD8DE945
BD915AA9
BD7D46DF
BE273F8C
3D7785E8
3D8F5AAA
BD432953
BDCCB722
3ADA3947
3CE68634
3C64BF1A
BC5240BA
3D9F7BF0
3CE81F5A
3DD3E662
BD2A02C3
3CA3D513
BCDD9D72
3D6F03A5
3D997FC2
3D97E281
BDC9FDF6
BC6EC529
BCD57EA0
3D0E1DB5
3D4F95D8
3D7D1DD0
BD6F591A
3D8FC1AB
3D617C93
3C34594C
BD59E76B
BD3D2B62
3D8CA380
3C5B121E
BDBAF5D7
3D1A9768
BE01E963
3CDEFB6B
3DD0C459
BDA08F31
BD4BCC3C
BCFECBB4
3D291E0B
BCCE067D
3D9AE910
BD8EFCD8
3C8CF28F
BCC35809
BD805494
3D93FC91
3DEA9130
3E0949D2
3E237796
BDA3723F
BCE1F794
BD9C6A60
3D1CE30E
3D5CB825
3D24F39B
BDB0A90F
3DF9350E
BD687844
3D88B9DF
3C228779
3C0A06D4
BAA28FCF
3DA55EE6
BD980B58
3C2B5295
BCED763F
3BEE9DDB
3D03A7FB
BDBA3D97
3D425C3F
3A5A1EB1
3D477BC8
BCF67A7E
3902A134
BC8EE4A4
BDBEEAD3
BCDC0B73
BCFBCE80
BD22CA1D
3AC802D0
3D8153BA
3BA2D8AA
BC121C4C
3CC4D3BB
BDCAC2E5
3D62690D
B99C4442
3D34402B
3CBAE62E
3DA3D6CA
3D260722
BD744AB6
3D217F56
BD8ECF37
3C45864E
3D679C02
3D8D4052
BCDA1746
3C93764F
BB999697
BDAD6E9E
BDC1EEE5
BCB2F50A
BCA30C79
3D88FED7
BCD2BF35
BD0BFDA0
BCD6694C
3D9CF67A
3D15201E
BC4F6A06
3D5EE97C
BD3E0144
3D8D180F
3CACCE15
BCE8279F
3D67BB66
3D8B6329
BC51ABF8
3D6A58F7
3BE67789
BD1AAEA8
BCDF8F1A
BD4E9A0E
BCCE3E39
3B91C7E2
BD6B72EF
BDCEEBD9
BCD61207
3D41CACF
3D8A7799
BD873393
BC62F864
3D707C18
3D4FFBD0
3D0332BA
3D9815A6
BD7C8D14
BBCA0EE0
3D8DD24F
3D93F38C
3DA7C5B1
BDA717A1
3CFF98E5
BDD2AB4E
3CC75EF3
BD1AB6F4
3D7AE9E4
3D99F022
BDA7E0F6
BAE86845
BD7DB6D0
BDCDAD2F
BD6D191F
3BDF6C5E
BD15C901
3CD29F5F
BD92E3AA
BC97C68D
BD082AFD
3CA80354
3CB593F6
3CAB9A09
BC91383C
3CBCFB4E
BD073A49
3DB3F531
BDB20A1E
BDA51939
3D9EE392
BC49713D
BC71DC59
3DB19A90
3C9C276E
BD1A0823
BDC901E9
3D25E7C7
BD089014
3CA35767
3D98F9DD
3DA5B506
3DAB6636
3CF64E45
3D9DA3CC
3D5849C1
3C396D2F
3D99104D
3DD3F8CB
3C052BC9
BDF63C96
BC8C2A48
3D3BF3A5
BCD3EB07
3D0124A6
3C9DF133
BCAAEA07
3D1A8C24
BD97F3E9
3D63D43A
BD9BD958
3D7F0C56
BDC05E56
3D9A833E
3B0B8420
3C955C0B
3DA96437
BC9724D4
BD3735AB
BDB92A00
3D8F1EF9
BD4E2A58
3D73FB3D
BDE43F10
BD9C79F3
BD509ACD
BC9F2663
BD242FCA
BD1F06B6
3D247D54
3D005C08
3DB6E4FD
3BC415A9
3C76EB18
BD7F8E81
3D4A89F7
3DE25614
BD2C3515
3D8D5CE6
3D57CE4E
BDEAB9E9
BCA4D862
BCAF4C8A
BD623DE5
3D03F1B2
3DBE5804
3D2B937D
3DFCD933
3CBE3CDE
3D7CEB8D
BDC097E0
BBECA90F
BD3077BC
BDECB757
3C1E09B4
3D581CF8
3C4BBD02
BD129EDF
BDC91DE5
3D9F32CA
BD891812
BDAE2C91
BD2777DE
3D884C31
BD77BC82
3DC12832
BCEB6887
BD78D972
BCB8164B
BD6CD79F
BD85CCBA
3DBA9C57
BD21DAD4
3D8F90C9
BCD9B31B
3C83C21C
BDA40A33
BD91DDF7
3D9CC1E1
BD3D1C09
3D99132A
BDAFFA82
3DB42FB5
BDC8CCC4
3BD06194
3CDCA8E1
BD74E82A
BCD3B4DF
3C90AB34
398C7C8B
BD2B99FE
BD86C318
BC635293
BD30B870
BDB4E108
3C1D3C7B
BD63C410
3CB930FB
BC8B2C42
BC17E2AE
BC37AE60
3D94DAD0
BD335B2C
3CC38BE8
BC65C895
3BDFA9B6
BBAD42C1
BD928257
BCDE48AF
3BD953A6
3D7B6D3E
BDB8928D
BC11C7F3
3D800BA1
BCBE533D
3DA2D52D
3DC1A4E8
3CFB5939
3C8AC0C4
BD96ED71
BDC3933E
BD65D197
BD3BAA27
3C074DBB
3CD62581
3DA891FD
3D4B2704
3D5AA6CC
3BC01B69
3D51CA47
3CB7709E
BDCA69FE
BC8E232E
3CF61EF8
3D96E090
BDDC10BF
3D13DD01
3C3D0811
BC56D7EE
BC9AFEC6
3D41A815
3D432CC6
BD13AD26
3D144CC3
BDB1E0E0
BD778517
3D2F297E
BD93D170
3D690495
3CEFFB24
3DCC86B1
BC28DBF8
3E133C76
3CA83798
BD815EBF
BD840BBB
BCC8F6DA
3D512061
BD893732
BBBEEFB2
BDB7F95E
3D34C649
3ABBBC69
3D5C9EDA
3DAB4F9C
3D30FE66
3D76465F
3DC72140
BD9EA47D
3D083B00
BD0BF8B2
BD99BAFA
BD0EF43D
3D37BD35
3DAE583B
3E02CD9A
3D283225
3DAFBD33
BD97119F
BBE4F4D6
3D8FF67D
BCB87759
BB8D2AA4
BD1DAA6E
3CF5E562
3D54786F
BD8275B4
BDB177BF
3D518D2C
BD304BC4
BD84102B
BDBBDD06
3C52BF64
BCB7DA68
3D33F4DF
3CAD1176
3CD0119A
3CC58EE1
BDC0D1DF
3C15DD5D
3D6D7F1B
BDAD20A7
3D2B19A7
3C41DC81
BCF269C1
BD26D29F
3D2E2E44
3CD25FD7
3D3DAD7F
BBC00BC9
BD1D527B
3BFD6F17
3CA6CEF2
3CD35E38
BD9CF43F
BC4F5E6F
3D179490
BD215A2C
3D36A78B
3C7FC1DD
BD86505C
3D7DD7BD
BCF07479
BDB219C9
BCE92BCA
3DB49B72
3C4A2EB6
3CCCC333
BCBCD3AA
3DC9F714
BBD9ACF4
3D8EC5BF
BD979668
BD28A82A
BD1F4920
BDBF8B0F
BDB7ACBB
BD87F06E
BD3FFC7E
3D85BAF5
3D803EB2
BD2F8346
BD435F83
3D45D32A
3D834C65
3C9843E1
BD7C8F6E
BD45870A
3B6DFACC
3CB93F1D
3D6D2C1E
3D7B0794
BDBF668D
3D2224AB
3CB76E5E
BCC16597
3D90B1D8
BD8D3FE7
BBBDBB26
3D0A687A
3D033701
BD060722
3CEBEA7C
3D832BBD
3D4188D2
BD927425
3D604D3B
3D28D0DF
3D552659
3D5F7E65
BC0BCC5A
BDA513DA
3D1E22D5
BD8B2B4F
BD7E9526
BBC3115A
BCE23CE8
BCCBB407
3D04E4BA
3D7E849D
BD3307D4
BBBD0977
BCDB3249
BD05884E
BC9A8D32
3D9B6DD2
BD0F31D0
BD2BD1E3
3D405D3D
3D3AD275
3DB1F0A9
3D9CED37
BD40DEB7
3AFB8EF8
BD267B84
BD15BEDB
BCB3BE22
3C758A5E
BDA456A8
BD524DAC
BCBA4462
3C95B2C2
BD8EFD3C
BDA5A542
BCD7B615
3C1D7175
BD045F10
BC6C8227
3DA5834A
BDC96723
BDA992E0
BDAF7577
BDB938F0
3D807E6B
BD9E89E4
3D5C715B
3D4626F8
3D0E2384
3D878749
BDA63A7A
BD33C012
BDC4C05F
3D5D55AD
BD32F083
BDB56CD2
3CDDF5F5
BD881A95
BD5F915D
3D8DBE78
BD125DA0
BD4DAB16
BD1A2267
BD316FA3
3CE26FE5
BD905DD0
BCB8A651
3D8B9B27
BCF6923A
BD360981
BCCBD47C
BD1E5517
BCCC47A3
3D9FD234
BD9E821A
BC0E7076
3DAC3FF2
BBB182AC
BDAC6FA4
BD3F66CB
3D14DB5E
3D8DD930
3CD08FCD
BC23056B
3DEC6A49
3DA19376
3DE835B7
3D71CA64
3DB21611
3D8DA732
3D5E81C0
BE0E4CD4
3DF15AA4
BD87E59E
3CA027DA
BDB01883
3D5D81DF
3D04C70E
BE26D93F
BD24FE68
3E1130D3
3D87B462
BDED1CB0
3C52BDAE
BAE1B910
3DB3D2F4
BC8D9086
3E02A658
3D0FF100
3D99E8D9
BDB0ACAA
3DB7885D
3DF2AA79
3D8D9969
BD10024E
3C677F2F
3CA68C4D
BC2B977A
3D803711
3DA79348
BD760D96
3E17494E
3BEBE289
3DC18C83
BD865A14
3CA374BE
BBEB0787
3DF1A310
BC7E6358
BDD27C5E
3CB5C536
BD5FEB8D
3CCED29C
BD504578
3C5A1685
BD430F44
3CBF0555
3CAEB55E
3D7877FF
3C53EABE
3D65A8D9
3D2184F3
BD9273E1
3D19838B
3D6A81D6
3D055A5C
BC1165C5
3CA1FF2C
3CC83AEC
BDC2E424
BB30B41E
BD047867
BE22FC04
3D431CF7
BD0A631E
BDD85A25
BDBCF395
3D51F717
BCB05D03
3C3BEE2E
3DC84861
BD6F99EF
BD8DFD3A
3CEA7AE6
BC027ABE
3DED3429
3DE94287
3D617741
BDA84491
BC8B74F0
BDF7E9EE
3CC73888
3E4353A9
3DC237AC
3E1A51CB
3DC7D97A
3B9B8222
BDA4C3F2
BD898CBD
BE4CE267
3DB62AF1
BD367D1F
BE17815C
3DBA0820
3D7F9589
BB8F87D9
3D88D43D
BD3D2985
3E026A28
3D47C83B
BE19D533
BB50091C
3DE2D0B9
3E1317E4
3C211139
3D3263E0
3DACC647
3DE8EF14
3CAF07D0
BD86DCC0
BD8A75DC
BC495EC3
BD7AD12A
3DE78B82
BC961867
3D493B6C
BD045936
3C7BE200
3D8334F3
3C99058D
BD16AD79
3C001533
3D604DC8
3D6B17F6
BC9B367F
3D334DEE
BC9285A3
BD1D6DF8
3DB53F82
BD7BC9BD
3D3C6651
3D1EDAC3
3C76B1AC
BC7FE5D2
BB04EEDB
3D222C4F
3D78D8E2
BC5666EB
3CDBE589
3CA80C97
3D59B9C6
3DD86E07
3D3F1116
BD07DD9F
BCA3D90B
3DA6456F
3D081466
3DBFCAD8
3D2F0A4F
3DA9875C
3D3BBFF0
BD0ACAB2
BC4EAB8E
3DA4C20F
3D43B2ED
BD81CF07
3DABFF39
3CBA42E0
3DB06039
3DBBD7E2
3D95AC1B
BD036852
3D8FCAC8
3D79F6B7
BDA7E9CA
3DB33991
BD564F1E
BD8DBF8E
3D57B765
BD3FE6D7
BD9B6AF6
3D0DF99B
3BFDDF00
BDB606EE
BC118261
BD8ADAD6
BC7753AA
BDA3860F
3BE3B087
BCFFF5DF
BD2E4829
BD5C2737
BCB694AE
3CA872C9
BDACED03
BD6CE467
3D6188C0
3D9879C5
3D5ABA7F
BD8E5011
3C8546A3
3D54A089
BD5BD977
BD1B83B5
BD0C4B6A
3D5F715A
BCA74FBE
BD828FCB
3C95558A
BDCADCF2
3D14D2DB
3C0FB105
BD8188FE
BC826C5E
BDBCB6B9
BD31111D
3DB1EB71
BDA9A528
BD891996
BC5748F3
BD92F93B
BC918EB0
BC68ADD7
3D1A7A7D
BD903374
BC54F9AF
BC789AE7
3D8F3348
BD73B753
3DACCA03
3D3E0B1E
3CE32E4B
BD81970C
3C7C544C
BD400040
3DBC907C
BB291821
3CC40DA3
BDB5BB9A
3C542967
BD659E94
BD90E24A
BD245E71
BC4FBF74
BCEA6A58
BC954BC1
BD861244
BDB9683E
BC7C53F1
BD857A30
3D009AD7
BD5F2372
3D80A345
3D970F08
BCB9CBE7
BD93B53D
BDAC3FBA
3E049F42
3C5438C3
BD8529F4
BC6564E0
BD5ADEC3
BCDBEAF4
BBD747DD
3C8D5C05
BD92A334
BC647AC2
BD8FB836
BD83F16C
3CAD3413
3DE8642D
BD2442C9
BBE570A7
BC30DA5F
3D8F27D9
BDA5B736
BC85BF76
3DD99E39
3D7B125C
3D913A22
3D7BE4C7
BCE3F7AD
3D3261C0
BD9BFDC7
3D056F8B
3D34E6E6
BD2D3D2B
3D84849A
BD0595F1
3DB7E3F3
3D140DB1
3CA2948A
BCA86718
BDA7FBE0
3DA023D3
BCFD9E3B
3D605F71
3B4F7A7A
3D964672
BCD753CC
3E1E20FF
3CF9738D
BDA826FD
3D39D326
3D07197E
3D573596
3E219269
3DC49CEC
3D8A92F2
3DDDCDC6
3B69CB2D
3D24F8F7
3D84118D
3C47AA94
BDDC7E98
BD7CBEDE
3C8E04DC
3DA9CE13
3B2B2E29
3DA6E546
BC997A0B
3DFBF7A6
3C8FF377
3D69654D
BD068F8E
3D2840F2
3C98C200
BD118508
3DE2086A
3C717DF1
3C567DEC
3DACFD92
3CE10955
3D30EDC7
BCDADEFE
BD0CD6F0
BC58111E
3E005841
BD4DB255
BCCF1147
3DA277AB
BD988465
3B887B26
3D854561
BB5B8817
BD985CBC
BD9A83AB
3C1D9044
BE0CEEA9
BDD43FCD
3CA0F8F5
BD89CD8F
BDDDDD4E
BC7ECCB3
BD9DA513
3CC01573
BD27966D
3DE10063
3D4E4CFF
3C026275
3C5C75B9
3D9253C5
3C31F7E8
BD8106B5
BC83268A
3A70EEEA
BBBF1663
BDBBDB1F
BC33C482
BD0F6766
3DF71742
BD118B9D
BD9F905D
BC82C4AB
BD3A547F
3CA5F4FC
BDAC1D74
BB9BCCBA
3D11A963
BD212498
BD0B3F90
BD3B8130
BCC7CE6F
3D5934B4
3D9DB992
3D5B4CF5
3D14B2DA
BC169177
BD511159
BD09DB7E
3D3EE29D
BCFF53BE
BD78FFF9
3D30FE74
3B7C5366
3C1ED62A
3DC405A9
BAF78176
3DA2E79B
BD246685
BDF5BF36
3D5F879D
BC3D2ADF
3C00EA6C
3D473969
3BF9DDD7
3DB3B63D
BD91F19E
3D18E99D
BBA45F39
BD5DF2AA
3DC00F95
3D41F0C3
3D4B06AC
3D294B42
3D10AA06
3D87E140
BD0F53F6
BD3B859B
BD234C85
3D588D24
3CF7196A
BDAD0BB3
3D60166D
BD090A52
3D7DA87E
3D4C69AF
BD96F01D
3BF00F83
3D638F6A
3DA361AC
BD37012E
3E125034
BDB2E95D
3C24F815
3DA01CD3
3DA80D28
BD97E60F
BA9A73E0
3D2DE920
3C8B9C1E
3D4D1381
BD13667A
BD70E298
BBF47984
3D68369F
BD474DDB
3D9A3B24
3DD34228
3D8BD8B7
BD0C2B27
3CFA54DF
B90BEC30
3D93D784
BCBF0905
BD559E85
BC3A4B27
3D8219CF
3CA080CA
3D827355
BC8ECE86
BD858F34
BC88AE77
3C08CD65
BC3F1BA2
BDCEE4E7
3DA3F685
BCA134F1
BD9D806F
3D81B858
BDAA48BF
3D231D1B
3C9ECA45
BD42D988
3D4C5732
BDB981E9
3DAF8629
3C9A87C5
3A87E036
3DAC85D2
BCA8ADB5
3D9157BE
3D78494D
BD8E73C5
3D80033C
3D9A8D84
BD6C9795
BD8F8BA7
3D6B67EC
B9B90CA9
3C66270E
BDAB5122
BDE18B16
BDAA2EFD
BC97FC8C
BCBB04FB
3D0B78D4
3E11F0E8
3D8B14E4
3D9581DC
BDA4EE8B
3D5E6F1C
BD4F05F4
BCE11595
3DF60494
3CC7F530
BB6B55BF
BD728391
BD82F301
BDA46A42
3CE834F3
BDBCB639
BD880DCA
3D8F1F8A
BD6F3C68
3D993161
3D59ACE4
3C8F75FB
BD73DF85
3DC58FF7
3C47FAD1
3DD5EF0F
3D21FDEC
3DC3ECF7
BCEC0C65
BD9DB589
3D4515A0
BB68436D
BD9BB21B
3DA2963E
3D8F0024
BBEDEF7E
BD88AB80
3CC928BD
3D8F7CCF
BD16D147
BC9469CE
3DA0B474
3DBF194E
BB60D552
3D94DCA8
3C77BB8F
BC2CD914
3DCE7EEE
3C9E0E69
BD88EACE
3DBD5C2C
3D92F85F
3D0F5709
3D7C0477
BDA3ED23
BDC6A363
3C82CD6E
BDA4602B
BB0ACB51
39E5AF98
3D5B2CA5
BD8B6974
BCA765F1
BB59CF20
BCBB00AF
3D23B1F2
3D85CF41
3C944616
3D80FC22
BD426F45
3D0AAAFA
BDAA0D3B
3D84A0E9
BD77E20B
3DA5032B
BD8FCAF2
3D58557A
BB890684
BD3068F3
3DBA4B66
BDD7AB2D
3D91248E
3D9741D2
3D344016
3CAC889D
BD4D6AAD
3D010AFE
BDBEB656
3DCADD07
B94F2B4B
3BEA52C3
BD58D2CA
BB2BB754
3D1E9167
3D9AB918
BD818D53
3D17513B
3E16E030
3DB17C06
BDA441EA
BD669051
BD5099CC
3CE3B770
3D260D67
BD69EC5D

