BD34009B
BCB84B88
BD0270EB
BD3B3862
BCDEB4C5
3D7E035F
BD85CBF0
BC3CE180
BDA4C619
3DB0B3D7
BDB26B6D
BD5901C8
3C3DFB2A
3D0A8979
3DB19D80
3D99C424
BDD5CEBF
3DD68858
BDBFFF71
BD362CCE
BD4B1343
3DD8FAA3
3D0D1D68
BC16840B
3D2D77FF
3D7244DB
3D865B51
3C61173B
3DACBCEA
BD3194C2
BD77D30D
BD6266F6
BD8ACC48
BD50A5E0
3CE9862B
BCF14EF5
3DAF16CF
BB6B7810
3A158458
BD86BB74
3D56F1A0
3D84132A
3ABC6EB5
BD1F3EA9
BD83D0AE
BDAEE477
3D292B57
3DBB6CC8
BD5E6781
BD09F3AC
3BFA2221
3DD4BBC2
BD8115E6
3D9C5602
3D91B973
3DC16144
3DCE139F
BCAE2A40
BDB3E7D8
BDAE634F
BD6FD1C3
BD88D4F8
BD8BAFEA
BD855C50
3BDF84AA
BA4CFDDF
3D64FE9E
3D203A6B
BD0D1BD0
3D7DF92D
BD5AF3AB
BCEE2F93
3C3D6551
BCF26670
3D81CE02
BD5853C5
3D8F76B8
3D86F5B0
3B082EA1
3B89F472
BD466389
3DAC76CF
BCEA4C76
3CE8C326

