3EE4979B
BD6D508A
BC86758B
BB23FE01
BDCDB2EA
BE43F9F7
BCF425B3
BE0842A1
BD87025E
BE03C78E
3D5CC198
3D82FDEC
BE55B2B0
BD6674EE
BD16B069
3E1B73DD
BD141EBE
BD1D8AC0
BDA680D1
BB966ABE
BC8F468E
BE956ACC
3D7C3952
BD2021A1
BE2C4A5D
3E4DD7DF
3E1F0EFA
BE3474BE
3DEE8910
3BBA8C1C
3E11F2DA
3D39F25E
3C7EE3FB
BD1519CB
BE486286
3E0EC63E
3E62FD7A
BD96C97A
BD991934
3E3776BF
BC2A6D19
3C7D56C6
3D775C72
3DE3F79A
BD0D9067
3DBBB6B7
BD20F488
3E2E869F
3B92F8E9
BCECCF81
3DF3FD8A
3DED7D67
BBF919F2
BC6E5943
BCCC43CA
BE27D59F
BD809644
BD030D16
3D9D5934
BC6BE62E
3CCE347C
BD66972A
3D558635
BC7F501F
BD8ED149
3E5AAD51
BE3F95D3
BCC8126F
BDFF3F99
3E0228CF
BDB07F9C
3D8AC5DB
BE046B45
BDBB3BF7
BE19BC3F
BC0D8160
BD806278
BDE68577
BCEC7279
BEA36814
BD4C0AD2
BD61B6E5
BDBB09D6
BE2E7043
BE2F33DA
3E7CAAF2
3E17AE74
BE55B72E
3CC97A23
BDEF7255
3DC8D0B0
3C88EFA8
3E1A22E4
3D903396
3D694615
3D630C9F
BDE058B6
BDE07D6C
3D119DD3
3DC8588C
3E22C460
3DD634E1
BC9BF6D8
3DAD5D79
BD83EC0E
3D87AEF1
3EA5DCBD
3E392869
3DA10E2E
BE40DBD2
BE970490
BDD6873A
3C94BB7F
BDA430D1
3D3A3BC0
3DD1B0C7
3BA15130
BC846AC8
BE0A1A4A
3D67B7A4
BE28A54B
BD4461F9
BDA25A1D
BDE4076A
3DA66023
BC245E3C
3D432304
3DF3B053
BD509D94
BCFDCCFC
BCEE6827
BE599CC9
BD6339BD
BDA5BD59
3CA11883
BD6A1D63
BDD66B35
3DE82CED
BE025B85
BD02AADC
BDFA013B
3DC088F8
3D378B15
3E07134A
3D99141B
BCC31571
3D01F1A1
BDA77630
3EB61629
BD9CE864
3DF048B3
BE9BFCEA
3CDECB9F
BE2660C4
BD77BC3C
BDB37B8A
BC7EF064
3CE392E1
3CBF08CF
3D559C3C
3E1AFBA7
3E1AD47D
3DCF1EFE
3D884083
3D0F1717
3E886CC0
BC10A425
3E7E504B
BE6A3946
3DA7B81E
BDEF276D
3E2E8118
3E23A6CD
3DB3773C
3DA85C3C
3DD2FADE
3D2E8FDD
BE367FA7
3D7EE41B
BE203560
BDE5FCD5
BD44FBB3
BD5FED11
3CD87297
3E9426FA
3D8DCBCC
3CFE0A51
BD930A00
BD8A4FBB
BCBE3A8C
3CDCF524
3E6F41E5
BDD431DB
BE95F714
BE142FA4
3DAC7EFA
3CF303A3
3DED4E07
3D7528A4
BDB33FF2
BDA49FFC
BDF1E482
3E9328B5
3DC6A977
3E1CC5A9
BD8B3B7F
3D944F35
3E9DC4F5
3E7A7ACD
BDC5384C
BC77D643
BB4D64F6
3AC22647
BC834E72
3D7E1626
3E0929E0
3E0111A6
3D0FCFFA
3D043263
BCF00932
3DB7818F
3E2A1C2B
BD11D2A6
3E0531F4
BDA3558F
BE17B429
3DB3D82B
3AE4E289
3DB86694
BDADEEF9
BDD30304
BD851943
BE68C2C0
3E4D5D07
3E3EC39F
BD5C8B14
BD6F6866
BE0A68E3
3D6DDDD0
3DA1284A
BDF51127
3D690727
BE95612E
BCE83748
BE1CC1E6
BDFFEEDE
BD86DED1
3CED649A
3DB03D37
3DD7C6B3
3E4F36BE
3DDE5501
BCBA1DCA
BE6FBC65
3DDC99F3
3C62B65D
BD826C15
3E4B8510
3DC43E24
BD052438
BA65A137
3E909800
3E079F17
3D809970
3E9EA586
3D49CDD1
3E284DD7
BDD419A2
BDD32EE2
3E4841B9
BD0541F8
3C335273
BD6087CF
3ECBA014
BDD21EC3
BD98606A
3E27254D
3D70779A
BE3B86FF
3DB48B4A
3E4662C0
3CB6C72F
BDB235FF
3CBFA2FB
BE00E912
3DBA437F
3C3B7266
BD964E08
3DEDFFA2
3DD87602
BC8D0E65
BC385023
BD958C60
BDDD8B17
3CAF3027
3D11F6A2
3C7BE460
BCCF8E1D
3D229CE6
3DD3FD40
BD15E18D
3C855F0B
BB8F6051
3E8A706F
3D12E627
BDEEA1B4
3B4388F1
BDE80756
BE3AC3A0
BE064348
3DCDB3E8
BD8EF1EC
BD8BED11
BDA2A007
BDB532F5
BCBD9B3F
BE2499E1
3E2F4038
BE1313E4
BE4CE349
BDF7386B
BE97E080
3BE075E8
3C08A0F6
BE305B2E
3D8CA4CC
3DA478A6
BD7805E8
BD0CC54E
3E0390F7
3D01CE9C
BE039F25
BD7A6A0C
3D17F319
3C8CADED
3DB278CE
3E2413A8
3CD467D3
BCBE07DC
3E2DCE8E
BC586FE4
3EA892BE
3D7F1540
3E20429A
BCF52753
BDB1CF51
BC4FC502
3D69F3BF
3CCDB116
3DA145F3
BE292590
BE49614C
BD03112A
BD95E0DA
BB6041AD
BE3D626E
BD725845
BE50ABC4
BC24300F
BB4FEF73
3D78E3D7
BE70AF07
3E651020
BDDCF8B8
3D83EB46
3DCF86AC
3DA6D7E0
3C8261F7
3E71C5B2
BD448EC2
3D8E5BF6
BE65D84C
BE8223D8
BD06C1A3
BC8C09FE
BC275983
BE4A9278
3E33A8DC
BD565226
3E4480D1
BD193600
3B708861
3E1137AD
BE605844
3D575E9C
BD88EF4E
3DD573C1
BE7FD757
3D8D4345
3CCB6BB9
3D17A710
3E2DB18A
BDC04B37
3B0CC067
BD0976A8
3D58624B
BDDAF694
3C46F85E
3E1BA6EB
3C8A2AFF
3DE4303A
BD1B1F1E
3D89B59E
3CBE1D0A
3DF3DD0D
3DADFE3C
BCC2E0E3
3C12D8C5
3E83B928
3D659551
3E56C650
BD5532AD
3D72400A
3D015C0C
BD9AC42A
BE48FF5E
3E4981A6
3C83A733
BDD82EE3
BDCAECB2
BDF45114
3DDA1FCD
3E4AA2B5
BDB14F47
3DDD95FC
BE03673B
3D43BDD3
BCBB4F7C
3D855E1D
3E58E8E4
BDC85C08
3E396664
3DDEEAF2
BD10416D
BDF4522B
BD822020
3DAC8794
3C90ED8D
BC745FD2
3E33149A
3DC56988
3DEF8FC1
BD0FADB1
BD8BF527
BE9AA0B8
3E2FC485
3DE74C64
BCE9CEC9
BE206E5E
BDA237F6
BE1C31DD
3C7FE218
BB143385
3E021C17
BBDAC451
BE17AE3A
3E5F6DA8
BD8722FF
3E39EA4E
BE2DDC19
BD82DB36
3B51EA36
3CE71135
BDB87491
BD40000F
BD7CDEA8
BDDF773E
BDA9F093
BDC7F304
3CEF0B8B
3B8B55B3
3EB3FE31
3DB2C5EE
BD516D37
BE2375C3
3E34F4E9
3E82DFD3
BDF2E063
BDE209EC
BC21A4DD
BDE6176E
BDE21FFC
BD99F963
BD1D92D0
BDF10640
BE8237D2
BE03BA71
3E509FA8
3D9CC1B7
3E3E7A5E
3DE2CCE7
3D8C46EF
BE3321C4
BDBAC938
BC44D267
3C4D5D21
3E108226
BC9388DE
3C817010
3E123096
3D322437
BE232769
BDDEF53D
3D9CF318
3DF457AE
3E1260D0
3D229C53
3E1E3CA7
3B5401D8
BEA010B8
3DC2BB9B
BE2E6286
BD9E8076
3DAB9B05
3D76577C
3DF65E27
BE3D10B7
3D458315
BE3B03AF
3AC8F352
BC619583
3E5949C0
3C9989B1
BD5791A1
3D516FC6
BDBED5AF
BCFAC6A3
BE16ABCB
BE3C9A6E
3E80B045
3E18ABC7
3D03D3EF
BE5092DD
BDFA3069
BDCA0588
3E3167F3
3D86E754
3D3EDF64
BE7C8FFE
BCD5392F
BD98F916
3E7E93BC
3D701225
BD889491
BD6B9027
BDDAB176
BDB7ED41
BDB2589D
BD6EDFCC
3B1030E5
BDED38FC
BC40C0DE
3DAAF7B6
BD4E78FA
BDBB0C69
BE64E2E9
BD7D5007
BD1435B9
3D405F3E
BDB0B87A
BD4FF035
3C45A3A2
BD2F66D0
BDC86260
BD2E8950
3C75EE16
3D23E333
3DD123D2
3D174471
BDA820EE
3E9798B9
3EB9B72D
BD73AD18
3E2FA43B
3D0F9463
BD2F4428
BDD9E12C
3CDB745D
BE80CE81
3BFE8DDA
3C66391F
BD9922CF
3DC74736
3E286E91
BDAAF593
3E1A3D06
BDC86D40
BE0A6728
3C1F4853
BE23FDAB
3E2B24E3
BDE0F774
BC969A08
BDF8E737
3D8CC3F6
3E4D1DD7
3DC8D9DD
BE5D6D97
3D8370BF
BDBFA4FA
BE99F8C0
3D7CB590
3D425197
3E4E0FF3
BDC44C1A
BDDECD70
3D25906C
3DC7F192
3DA8BC15
BD501AFD
BD99D506
3E22B185
3E163AC6
BB8CFE47
BE7D6615
3E6CE894
BD9E86DC
3D0E8BA2
BDDEBF05
BC72A00F
BDA42581
3E003B68
BC669D4B
3DE791F7
3DAEB85C
BE01E177
BE0E1743
BE4B34B7
3E297AE0
3D43BA80
3B8E6ABE
BCEF567C
BD15A7A4
BD87546B
3E9023AF
3D063B35
3E1E2F16
3D3663C8
BD8597B4
BD1F282F
3E174F74
BD881C84
3E5401B3
BDD383CD
BC6115EE
3CF37A81
3D98AE0B
3CD3D7F7
3D68A879
3E2FF973
3DA12184
3D82635B
BE30907B
3C66F5E3
BD8E591F
BE31F36A
3E58C136
BE2867C9
BDAC820A
BBCE8885
3E84BCC5
3BEE2128
3E79E619
3D59D981
BE0506C9
3DA3B4A3
3CACC900
BE24D0C9
3C3719EA
3D538E18
3D8FDB5F
3DF024EC
BE75111A
3E0F96C7
BD960484
3E193302
BD54EAE2
3D56FDED
BDD25857
3D898591
BE0EE905
3D2E66E9
3D882B8A
BDEA9AA8
3E889A7B
3DD435B4
3DB0CEEF
3E7DC8B0
3DBA5A1D
3D0C8B40
BDD2E1F1
3D97A4CE
BD86B1D5
3D0C7699
3CB01229
BD9355B9
3E49158E
BE100F29
3E0BAA45
3CDF5B74
3E035FD3
BD1D2206
BE13AA6F
BE09C5A4
BE2E7D92
BDA7A892
BD907073
BC09C470
3E40AC91
BB7ED154
BE0DF3D8
BDA8D514
BDE5AC83
BD2922EE
BD6A26FB
BDB26112
BDA71975
3DBE2FC9
BDD1BB64
BD5E9305
3CB24CEC
3D92E552
BDB8EA68
BE24C609
BE043AA5
BDE62597
BDB4A312
BAA69CC8
BE38E959
3D5053C5
BD57214F
BE1A8BEA
BDAC2C78
BC10664E
BCFD0B25
3D13AAAA
3D9F614A
3E3CCF47
BDA4C566
3E26998B
3C994E98
3E2C1224
3DA46F9B
BD6A2AB6
BE6B4508
3E2C9F18
3E16B94F
3DB12984
3D0AD315
3DCCFE55
3CD159F1
3ECECA4F
BDDFDD35
BDA526F6
BE173B25
BDC3A1D2
BD6FFD43
BE44C5AF
BE1AB246
BDACC840
BB88FF50
3CF8729A
BD9E2978
3D268FFC
3DFF58D4
BDB05762
BD283D07
BDCAFD69
3E11501E
BBA907EF
3E766037
BDB7D006
BC9749DA
BDBC7506
3DF11FB0
BE42EB1A
BD89D64D
3E12E6C8
BD41A59F
BE24CB59
3D8E3F31
BBEFBBF8
3ED57E6B
BDA27539
3D8D7294
BCA0B3E8
BD27101D
BD9AA73B
3E250B00
BD3CFE3B
3DD57D77
3D982436
BEA29C75
BD318C1A
3D2EE6CB
BD840469
BD18E52F
3E4B42FC
3D131E17
BE16929B
BD8C343D
BD992E5F
3E86AACD
3E3CCEDA
BE43F396
3D87CCA2
BD5F0E98
3D3453B9
BDDCE507
BD7A66F8
3E422C94
3E1A89D8
3E5BF7BA
3E2F9A90
3D863AA5
3CC2F7EC
3DA6A777
BE181E86
BE600B3A
BDE34820
3E1FBC72
BE2CDE8C
BE9AB217
BE186C9F
BD8C3095
3E6077A4
3D786443
BD59EBE1
3D6B93BB
3DA16D73
3E99BACE
3CBA49B9
BD4B4EBB
BDA6EB61
BB9BEE8A
BE03D787
BAB0A82E
BE7873AD
3AD8642F
3D93C825

