3D5E5EB0
3E45124A
BDB9C36E
BDFC1881
3CFB1462
BE06678C
3D62AD24
3E156FE5
BDC8F60F
BD216EB8
3D09D2B1
BE1D2BD2
BE4484E3
BD8CA521
BCDCC2C5
BE2AAB15
BDA48E09
3E1397EA
BBAB6713
3D173FB4
3E45C467
3E057EDB
BC84EAC8
3C1B9F7C
BD460A2F
3DFC32A9
3E1E0FED
BCD4D389
3EB73435
3EB86F99
BA9B0D3E
3E79C7B6
3D02F899
3ED0B005
3ECCE31C
BE5F8C41
BDAA04F6
3DEF89B5
3ED4EBAC
3E6229BF
BE88BBD0
3E06BB6C
3E616615
3ED85BE3
3ECEF081
BD2E8399
BD6A6AA4
3E79F578
3E04AAE4
3CB31D91
3E66D16C
3C08CF49
BE67F207
BDB4D5FB
3D8B99DF
3DF0EF48
BE738DC5
BE878141
BE1A4E3F
BE630934
3E092B57
3D71DD85
BE43CF0B
BE60F942
BA3C6C47
3DE5BCBA
3D3E9F6E
BDBCEE83
BC4F176C
3E3B7890
3E4946B8
3D83CC65
3E6F0526
BCF59987
3E9C3851
3E5C9DC6
3EA69587
3CEDA658
BE85B061
BE6C40B5
3E817DF4
3E3C0405
3E6A4146
3E1F5FF2
BE079E13
3EC74D49
3E7256B5
3EC9B128
3CBB3FC2
BE853C61
3D178365
3C758753
3E552772
3E351CB6
BCBCA489
3E4E02A8
3D97C42F
3DB1C3C5
3E87EB35
3E8E77D4
3DFDBA68
3DE0B989
BE7851D4
BE01208A
BDEE2A89
3EC0B4F3
3E661C5E
3DE23ED3
3EB5AAF8
3E71F29B
3EA498D8
3F121661
3F048EAC
3E989102
3E630D5D
3EB75AC1
3ECB37C3
3EBDD9E6
3E78C8FB
3E462A19
3D5D3103
3E306099
BD812CE3
3D8643C6
3E147B3D
3CF3296D
3E42E38A
3E90D788
3E4CA835
3E672EF8
BD459C3A
3DBB9E03
3E650BBA
3EE24705
3EC0D4D6
BE275449
3DF3FC54
3F05B416
3F37B467
3F1900C3
3DA0268B
3E353B01
3E7DF33F
3F01E5D1
3EEB76B5
BE1762BE
BDBA3897
3DD1DC3E
3E054817
3BFF6525

