BCB2228B
3D20BF42
3C94C633
BD334D82
3CDD656B
3CB08AC6
3CC21137
BC6DFEDD
BCF38829
3C2BDCC7
BCAA84D6
3D4756BB
BBA2D08C
3BABC5E1
3C6527D4
3D2C8BB6
3C8C602B
BCC632D0
3D2F93D8
BA05DB60
3D4826F2
3D0B820C
3D44B7C7
3D049FCC
3D2E1A37
3D35E1F9
BA6FA0EC
BB4F8DAC
BD4C87E8
3BEE8471
BD47A513
3C46B66D
3D0AB368
3C4CB020
BCAE151B
BD1805C0
3D2EE859
BD09BC38
3D262424
BBA7144A
BBFB44E3
BCDD52BB
BC583BF8
3D45AD0D
3C924866
BCEDD114
BD2BC476
BC95104A
3D0A3033
3D4772BA
BB75B098
3D3B50A4
BD3CD3E3
3D145F38
3C3FF486
3D177FEF
BC5CECC5
BCFAE8DB
BD017999
3D1F8930
3D0D9330
3B24024D
3CDA524B
BBDD510A
3C0946DD
3D050A20
3AECBE9F
BB83D0A7
BC12DA3F
3D45734F
BCAD1BEF
3CD7791D
3CFA9927
3D059622
BCF62A57
3CC14EF5
BD40FB6B
BD05723C
3D224096
3CE0B200
BD041AAA
3C92F18A
3BC53032
3C9A070D
BC487F91
BC8AF0ED
3CFF9B17
3B441F24
BD0EB718
BD4AFDF3
BCC9B48D
3D361D85
BD36CFAC
3C1D0E62
BD326BD2
BCE79BF9
BCFF3983
3C6DD690
3BD88FD6
BC51BCF3
BD3B30C4
BCF72746
BD47FE76
BC44E2E5
BC23B8A0
BD12B805
3C785285
3B8A9939
3A1DE6B9
BBDF5B34
BBCA6140
3D33E151
BBD9AEBB
BC15782D
BD432A8B
3CF5A738
BCC7FAA6
BD159D5C
3CE554EE
BCF25683
BA3690F9
BD4B340A
3CD59D33
3C6BD4F5
BCA0ED7C
3B2A0207
3C300234
BC6CDE3F
3CCD086A
BD33FD9A
BD4C92DB
BD2FF65F
BC1F0FE5
BCC8A5C2
BD36AACC
BCE02CC4
3D0C41A8
BD24904A
BD1D3036
3D071BC1
BD390EE8
BCE8EF4F
3CD30008
BD3A8C1E
BD0C5580
BC8DBF72
3D0BC386
BC9CADE6
BCFCAB82
3C257610
BC63579A
3C136977
3C08BA4C
3B908898
BCED465E
BD000E73
BBDA74C8
3C80EFE6
3D13CC60
BC5EE1A3
BD04549E
3ADC5AD3
BC39276D
BCCDD8B7
BB0D0698
3CA49EFE
3BDA0000
3D23DC2C
BCEFC837
BCC7A677
BD3C01C8
3C3331A6
3D195DEC
BBB75A73
BD17A847
3D0A221C
3D149B74
3B9301C5
3CE7E1D8
3D197519
BB29A81E
3D1458BA
BCECC864
BCD0F81E
3D17172C
BCFF889F
3CEBB611
3C840144
BCDA1FEE
BC97E181
BD327B51
BD3CDE05
3C22EB42
BC2F6BD5
BB9E6C0B
BCCEE03D
3C8D0E4E
BD47B296
3C52421F
3CAC0341
3D3803F5
BB98BB46
3CD22AB3
BD4BD767
BC2887AE
BC93C140
3C6ABB6E
3CF8B36C
3D151D5D
3CB061A4
BCBB423B
3CABC755
BCC83962
BC12F571
BD02B76B
BD33153A
3CE63177
BD2385F2
BD096D12
BC9A00EC
391C2AE7
BCA2D7F6
3D42B109
3CB848FE
3BE02E39
BBC0B45F
BD2B19ED
3B001098
BD08239A
3C287F2B
BD0273D2
3D000E64
BD393287
BD477E6A
3C8E30F7
BAA804E7
3D1F0413
3ACBB41D
BCCD73B0
3C827180
BCDA679A
3D21F88C
3D2C01F2
BD0D848D
3CB9637A
3CC00290
BC930683
3C7AB207
BD2006C8
3A03F851
3D35080D
BC907B4F
BD41F5DE
BCE88769
3C07858D
3D0F8646
3C12ED07
3B994D6D
BD052181
3D32BADE
BD23ECFD
BD259882
BD331615
BCAA2381
3CC7C17E
BD3A5CE9
BCB7F07F
BD129379
BD3195F9
BB99D35D
BD011F86
BCC42FDD
3BC56823
BCBB57B2
3D1F53FE
3CF2B530
BD346334
BCF16F47
BD1C64F8
3BB6F570
BCC7DD3C
3D1B51D5
BC7D788E
B98CE340
BC014668
3C80DC2F
3C80027B
BD20C4C0
3C5AD67F
BC8E2FC6
3CB95A6A
BCF4AEC5
BCF90BE9
BD23875D
3D43AD62
3C3869AE
BD360DA3
3D0B7A52
BD379A5F
BD0AD77F
3D13924C
BAB70C67
BCD3EAA1
BD05998C
BC8AEA9C
3C1A8411
BBD5C334
BBD20A71
BD0AE632
3D168320
BC82DC3C
BCF4BBF6
BCE57CF5
3C165FFA
BBE591F0
3CB23690
3C3FFDDB
3CA1FB73
BCB061EF
BD23D0D3
BCEC832D
BC337C4D
3CA7CC8A
3CA3C3CC
BD3806A7
BC75FD92
3C55C786
BD3ADA12
3C19F088
BCFEE3DA
BCF5D8A9
3C8BFD3A
3D21DC19
BD32A092
BCF59E47
BCD29B1F
3C6B452C
3CADB0AA
BD471B0D
BBEAE7D0
3CD49FCA
BD281B35
3D124927
BD28F04A
BC8F7434
3C8C6366
BD30E5F5
BB9584D0
3C8B1992
BC8F1D8A
BC9F80FD
BC3CF4D8
3C3029FB
3CAE37E3
BAF3ECE3
3D4386D2
3C3B1000
BBE92CD6
BC839E02
3D44C2F3
3C9A08A5
BB745A4C
BCA202B0
BD090DC2
3D20BFE8
3B32A63B
BC9C4959
3C70C15A
3D285DBB
3D3F3D85
3AD871BA
BCEAC9B7
3D30162F
BD295270
3D195C13
3D252867
BD3EB43D
3D385DB0
BCF3F0D7
BC16A432
3C3DA8E4
BCD2245F
BC358D71
3D003F47
BD112BC2
3C3F7307
BBE1C3CD
BCB3683F
BD012693
3D0DCD9A
3C11891B
3B58109C
3BADCC10
BD07B3BE
BD0527D1
BBA6C2BF
3B8864D6
BD38F893
BD29C6E3
BD2F8695
3C693D30
BC9AFF62
BCCA7D25
3C583619
3C09C592
3C93A30E
3BDE3672
BC847522
BC831994
BD0892CF
BD0BCC93
3D223DF3
BD21F52F
BC7ED910
BD3A8C25
3CE1AA9F
BD2FC31A
BBA003A8
BD5C7F87
3D2C782C
3B74AA48
3C07BB36
BCF0818B
BBC974DD
BD4344D0
BC8D6478
3C1BE022
3D20BA57
BCAE6E43
BD569F90
BD457CD4
3D35934C
3C8FFF2D
BB872F3C
3CBA8B2A
BD201799
3CC0CA1F
BC1D10C2
BD14B952
3D3DB8A1
3ACF38DB
BCBEE9E6
BC939EF8
3C56A24E
BD18732C
BA222FD5
3C85D4D0
BC4A5EF7
3D0EBDA6
BD027583
BBC7680F
BD1FFB22
3D150FA6
3CD5FFAC
3C65959A
3CF5E2B3
3C400A38
BC664CC5
BD5383EA
393E69D9
BCCF149B
3D2F6888
3D383F58
3B4CAE9E
3CEDCE69
BC536214
BD4D1172
3C3A0D2E
BD1A53F8
3D3C28BD
BD14DCAB
3C135DB3
BC0D2E24
3CE4E0CC
BD38F7BF
BCCB9B0F
BD056883
3CD1CD64
3CE31D19
3C6CB66D
BC97414A
BD4CF458
3C0F2FF5
BCE35FD4
3C8B9B74
3D3646AF
BD1475C2
BD05EF5D
BC894BE5
3CF07791
3CC38E7D
3CEF0FCA
BCB4E648
BD120D4F
BCAA2847
BD19EFED
BD1D1F7B
3CFDA385
BCBACC3B
BCDD1ECA
3BE3AE90
BC64794D
3D16CBE8
3D10B02F
BC08FFCF
3C8FA9E6
BD12DA28
3CD82BF7
3D033251
BD0CD99F
BD2866ED
BBEAB1CB
3C4F7424
BD1ADBF3
3D013B84
BBD5DDA7
BD4B8B3F
BD2B035F
3C83F054
3D1AAB3B
3D32796C
3C4E434C
BC2C0931
BCD9790E
3BF21BB2
3C9F31E2
BD39C3DC
3D1CDE9F
3D35C021
3D0B3E1F
3D26197C
BD18EC77
3D2A1D56
3C05F98C
3C84B7CB
BD24DD1B
BACE260A
3B98D4A0
3C843292
3CFB4044
BCA0F426
BCFA81F2
BB93328A
BC6FB37E
BBCF52F5
3D006F18
3C9234D6
3D496A74
BC7D107D
3C9109DA
BC87D8B5
3D3989C1
3D308E53
BCCBFFAF
BCD56FF1
BCE68E51
3CB07889
BD0C97B8
3D1276D3
3D0E0CAB
3C8E3721
BD525157
BBA14A5A
BD59733C
BCE4CC8E
3B636D3A
3D1C1423
3D2E6FBD
3CD8A8B1
BD35C470
BC88BD57
3C365208
BD1F6EB6
BB4CE8BA
BC1D2A0B
BD1DCE62
BCB76ECA
BD1EFB4E
3BCCC961
BD603C23
3BFD9192
BD2FDBD9
3C472E61
3C1E8FF6
BD2686B6
3C633A87
3D283F0C
3CB3100E
BCA2362E
BC828179
3D2A0AC7
BCC0009B
BD5476CD
BD11B0AA
BC0A4CB6
3D19E96C
BC037BE9
3D25C5EE
BCE3A562
3D033404
BBF11179
BCC09E78
BC79F356
BD50E1EF
BC494CA1
3CBCA55C
3CFEFFAC
3CB52152
3CF866AF
3D0F4E42
BC56F3D6
3D3788D4
3D3E91CB
BCE8C6AA
BD1DB098
BCD38172
3C45AEC2
3D1D90E3
BB23A2AE
3C446817
3D2F7318
BC3789C3
BCE5B332
BD265432
BCA8AF53
BCBF53D0
3BB41FE7
BD62161D
BB969F22
BD20C523
3ADA4357
BBC5BFA6
BD0DA1B9
3D5E053E
3CEAD0A0
BCE0F2A1
3C7C1092
3CADE072
BCE3673A
3D34DFB8
3D517963
3C52CE5D
3D0DFA23
BCD703D8
BA490A70
BD1748C6
3BB21F4F
BC452FFB
BD4436C5
BAA58394
3D297CD9
BC846AED
3D14541F
3CFF7AFC
3CB23924
3D49F0EE
BCA23515
3CB4C528
BD474626
3D0F3A90
3C89BE24
BACC4FD5
BBE4852D
BCC13496
3A9683AA
BCAA4C48
3C31D345
BC05EEBB
3B933AFB
3D4616BA
BCB923E8
BCA6E4B6
3D2D32E9
3C74C682
3D3C122A
BB419098
3D0DDCFB
3C7C7E8C
3D1BFC51
3CF51903
BD25EB83
BC9ED884
BD1A9ADC
3CB13343
BD046135
BCF45BE9
3CFB06D3
BC03B9A5
BD5C048D
3C3E5FF7
3C817BA5
3D0F8D98
3B66ED57
BBDDD78D
3CD387E6
BC374294
BD065698
3D16206B
3B1DF17A
BC903EFF
BC3F85D9
BCBF7D27
3D472AAE
3D0F18A4
BD274E13
BD0B39D9
BCBC2A0D
3C880FE7
BCB8FA01
3D0C0881
BD44BD8D
3C4CD6C1
BD3351D8
3CD70099
BC24D4B2
BD35151E
BCE1E9BB
3D26EC38
3B5B3069
BCE19AC3
BA088184
BCA45970
3CC8854F
BC903450
3A8B1A3A
BC914A0C
3C9BAC11
BC5F7FB2
BD35FB4B
3D166A41
3A106A85
3D0419C2
BCE8D0B3
BD4ADA4B
BD310B3B
3BC1CF49
BBF6FAB3
3BB94B58
3CE63C7A
BD38F80A
3BFCDCF2
BCBFDF3B
3B1E5960
3CB652D6
BCE458D0
3D239129
BD086C7C
3C4BD457
BC97A97F
3B1A884E
BD1DA25B
BD45B9C2
3D28C732
BCBBEFFD
3C634067
3CF6392E
BCA33988
BCB02372
BC99765B
3C8CEAD7
BD11BEDB
BD1F2A65
BC296F40
BD3AF166
399127DF
BB21CA43
BD1FB81D
3CC9EE54
3C1E7D8E
BD18941E
BD096A2B
BD175BBF
3D18199F
3CAA95A1
3D01F9F8
BD39E8B5
3BADC90C
BCEE67AB
BD05D14E
BD311E85
BB1D6B44
3D3B9721
3D2C446E
BCBA8943
BD44F611
BC45827D
BCC4770A
BD035CC7
3D0C4223
3A36C3E3
3A694C8C
3C2E35BE
3CE0EC19
3D20EE1F
BBD65747
3CF7B52D
BD2DEB50
BCF7381A
3CF6A5C1
3B045B24
3D076FEF
BD03C9DE
3B002DD4
BD3A7F45
3D05EBB6
BD1BE148
3D376402
3D8E5165
3D56407E
BCEFB2BC
3D1ECDFB
3D6F9CF5
3C0FD410
3D7EC765
BD0400AE
BC1013D5
3D0429DB
BD3A1D17
3D237069
BCBB7810
BC41C8E9
3C53CC79
3D573472
3C07C9C8
BC3C4743
BD0C144A
3D4DC2EB
BB5A3CC0
3C42E5FA
3D36B0F5
BD385477
3CA95456
BB1F2B7A
BB5AC7A9
3D20AF02
BD1AC6CE
BB2E21C1
3D0D7B5F
3CAF06C2
3D53E396
BCA53E96
3D20D08F
BD3C5569
BC859861
BD689EFD
3C9528DB
3D4014DA
BCC8DAB0
BC9C1960
3C8AFDEB
BD0F3787
BCE0AE28
BCBE381D
3CA521F5
3C11C1EA
3B56C5CB
3D08D0B4
BC1D1CDD
3CED27D3
BCFA1876
BC8EF678
3CE88B62
3D449152
BB9A66ED
3C3F6CCF
3C3C97BA
BB136005
3CDFFE7F
3CAD25F9
BCD95F91
3C057B68
3C36A6DE
BD167FBF
BD3D0642
3D0EA953
3C5BD51D
3D690185
3D5F1736
3D184336
BCB2944C
BD1A8BA2
3D5ECC94
BD1E7E99
3D37C5A2
BCFA407F
BC3E49F8
BBA1BCD5
3B8C5BC5
3CE1FD1C
BB556C37
3D46F6DC
3CD4ABE5
3C3CA3A9
BD8DA25F
BD2EE400
3CC8464E
BDCCD2E6
BD8F2B45
BB1821C7
BD129F2A
BD383F11
BC667DA9
3CB09002
3D6D9CA1
BCEAA2DB
3B3513F1
3D058D2A
BCF658DD
3D840B83
BC9E8131
3D19E651
BD4A03AF
BD827E1F
3DAF0EF2
3D4606C3
3D1FF785
3D42E56C
3D7B390D
3DB72D57
BD3839CD
3D2D3808
3C53852A
3C86A263
3D410263
3C584EAB
BD01A107
BD712F70
BD9A42F1
BD562F08
3CB00712
BD789F25
3BF7D0B1
3D4C941F
BC2425D4
3D4FC1E7
BB8AF209
3D636BE5
BBE323BB
3D10D14D
3CD47EC7
BD1EBD83
3D3DDD10
BC0A1228
BC4079A3
3B112FD1
BD334CF0
BBE699BF
3C642C8E
3B8C4539
BC10F4F5
3C856655
3DA14637
3DB98A0A
3D6E20A4
BC38A84B
3C41282D
3D4F4D9F
3CE16ABC
BC56235A
BD11D84F
BCA6519A
3D3E79FF
3BC85B76
BD25F1B5
BC516F03
3A3746D9
3D7AB912
3D2813D8
BD243B88
3D128D59
3D404123
3D7E24A6
3CDE6154
BB958B96
BD3CE20F
BD3F7F8F
BD9498FF
BCF832F1
BD28DE94
3C55A3E4
3D147008
3DB8EB80
BC8242C8
BDB30270
BD965390
3C5B3FDD
3DC9671A
3D04A60F
BC5D8D60
BBF169BB
3D493136
3A3EAEE7
BB386689
3C9A9722
BD6C4B07
BD94ED82
BC844BEE
3CEAB70E
BC214B88
BB83DC6C
3D345744
3D367E44
BCD8E8FF
3917F55C
3D037CA0
3D0BFE83
BD071380
BD773DFD
3D168B84
BA8A7302
3C71B2AD
3B0479FF
3D088D4A
BBF35F2B
3D0AD2B7
3CBDE7B5
3CE0F933
3CA66184
BD8C4CF6
BD51898C
BD052687
3C1EF436
BD9127BB
BD586AE9
3D09A52C
BCC27029
BD2D5EC3
BC508340
3CB0F84F
3CAA8538
BD9DE919
BC28F00E
BD047B32
BB85A3E2
BD1900B1
BCB623A0
3CD5DEF3
3DB1C47F
BB0EA2DA
3CCC0E26
BCCE08A3
3CA8E0FD
3C8C5CC6
3C269FDA
BD0788AC
BDB644B6
BE038172
BDBDBFCD
BD2B59EB
3D3D85E9
3B6A27F4
3CED8A52
BCC236D6
3C196580
3B5B4959
BD4C957E
3C04DB01
3B49D52C
3D1FAB14
3D3A42E8
3C36C0C4
3CC3B75E
BC93663B
BD087E2D
BCF11B15
3CD86815
3CFD93ED
BD00B204
3D49BDBC
3B702BEB
BCF3DA1A
3C2EB53D
BCC86829
BC388060
BCFBE820
BD3DBB9C
BD44FCEF
BCFAB663
BD893DDE
3D61DE11
BD45C7E8
BDC0E8F9
BE07D7C9
BD650D2B
3C9BDFA9
BD0A55ED
3C3AEBB1
3D1732C7
3D162FB1
B8D32682
BD15AC28
BC555276
3CB42146
3D5BB68C
3C1467B7
BD8D5308
BD80ED3A
37736B00
BD2EB5FB
BD043FFA
BD05FC5E
BD8CC556
BB15C4D7
3CD1AA90
3D412386
BBFDB22F
BD86CA4F
BD6F322F
3C89364C
3D0791D2
BAEFE479
BCD1504A
3B2F5B10
BB9B21C7
3D1A98A7
BD74530E
BC47C639
3D0B3090
BCED6814
3BCABA7A
BD2DDAD6
BBBC67EF
BD10D5B3
3AFB04C0
BD58FB02
3D15BA78
3C540D36
BC0C7D86
3D083ACF
3C798744
BBED49C7
BD412078
BBEFA9E0
3D152A05
BD13527B
BB983CCB
BD25FF62
BCED46EA
3AB0D8C0
3CB9C9DA
3B4A468D
3D428853
BD38E83A
BD046138
BD409D9A
3AC705E5
BD17A8BA
BD26243B
3D21863C
BC597C5A
BC0CA284
BD32A728
BCF47DD3
39D02D70
3CE6BC65
BD8B9ADF
BD85D2CA
BD508ECF
BD7ACF88
3CFFB356
BD8637A4
BCE5A267
BCA4A315
3D544AF1
BC1915E8
39855DE0
3C6DC23C
3C8A93AB
BC345FAC
BC019883
BD1DBB1E
BDC8C7F3
BDB8342C
3C71191D
BD219263
BC4834B1
BCF6CAB1
BCEE4929
3D5C0EBC
3D6696A1
BB95C969
3D4C7944
3CE52BCA
3C4ADCBB
3D1A84DB
BD4B48AA
BD33714D
3A937E38
3D1A8333
BB7EEF8F
BA0F4920
3D51A6FE
3C52EE92
BD050BE5
BD5B434B
BC2FA2D3
3D39DD0A
BCD3567B
3CEA6548
BC5F4642
3D3076DD
3C72FF3E
3CA631F2
3D305192
3C1A7DBC
BD136887
BD1D9E52
3B9C230A
BD2DA773
BC63CAD1
BCE1EC73
BD11BF01
3C6B5CE3
BCFE0359
BD273D60
3CF159F8
BCBD4E08
3D20012D
BA3C4557
BA8EC869
3C8F2320
3D0C410D
3D155A21
3D199DC5
BD25B7AD
BD1D17DD
3D3F2A5B
BD42D0F0
BD8688BD
BC9722DE
3C5E6E32
BC118D95
BC0CAB6D
3D2E7825
BD09AFE0
3C831777
3CD11181
BD0A0BEC
3C2A4969
3CFEEA0E
3CB4BC7A
3CC44F4A
3CFA334F
BCB99E42
BC1C0078
3C859424
BCF6D89B
BC5C07CB
BD1F8EC6
BC2726E2
BC05D802
3BC2D8D4
BD16A574
BCBF8542
3CA54A1E
3C25B57E
BD275142
BCDDF95D
3CC62E21
3B65A56B
BC223D19
3C9FE161
BCE9ECF5
BCCD4452
BBC9DA0E
BB8B3B16
BC57CDC2
BC665919
BCBBC525
BC30C5C1
3D0415E4
3D4ADFA0
3BCFA953
BCC11C21
3CB60BCA
BB269B7A
3D0A80A3
B9A49551
3D0D21ED
BD1AF0AC
3A50E272
3C9B6B19
3BDDE1D7
BC162750
BCC4AD21
BD078AC1
3CF2DFEE
3D808820
BD318B4C
BCB60A20
BBB20124
BCA5C459
3D118C22
BD2A43E5
BC27DE8D
BCB7E89B
BD6ACDB1
BD6C88BE
3C033692
BD1D493F
BD1022E2
3D180894
BACB4040
BD03C9F7
3BB7D1A9
BC751CF0
39D533F2
BCAE608B
3CAFB37D
3B9AA40D
3D20D5E6
3CC61B60
3D11E6B6
3C269A8B
BCE8004B
3CD39779
3D334F33
3D0FA9A3
BCC59929
3B4EA023
BC69839E
BC590B63
BC802F49
3D7B2CA1
3C12C0D9
BD0C026F
3D486331
3D698D74
3D3FD62A
BCAA62F1
BBBEBF8F
3D446673
BCE994BC
3C34CE59
3D1F637C
3C9EC743
BCA481A6
BC51AB3B
BC6A552F
BCD48F5A
BB8DF872
BD2437D7
3D510168
3CF70AC0
3D056C15
BD0A52C2
3B85291E
BB0EF2F4
BC560EA0
3B42A784
BD061248
3CB35A2C
BD3927AF
BD9A1099
BC8F8C07
3D31A69C
BD2AE48D
BD23E6F0
BD93A87F
3C8AA3DA
BD1E83D3
BB9DDAC3
BC3E94DB
3D046257
3D103C1D
3D348668
BC100AA3
3CA4D460
3B8E34C0
BCE9E366
3D1E2641
3D0C21CA
BCDF1D9A
BD1D3754
BCD8D176
3B5729FD
3BC6A66D
3D017932
3D8EA54D
BB38C47B
3D546639
BCC8B7DD
3C8114BA
BC8FC377
3CA89D3E
BC1BC836
BCE63E46
BD3D1FE5
3D00D158
3CDC9ECD
BD735B53
3BFAE436
3D26C25A
3CF03E57
BC0870C0
BC8CCAE2
3CA3E731
3CC6B682
BD97A3D8
BC171E1E
BBD4F534
BCA6DAC4
3B487076
3D300789
3C012DFF
BCA8BC8A
3D108916
3CD6A2FD
3D47930B
3B274881
BD061639
BD338383
3D19AF8E
BB87FD3A
3D352CF3
3D2B2BD7
BD22B559
BD40E105
3C0B23A8
BC1F617E
BCB32B93
BC8004D6
BD62667D
BD598A56
3B552251
3D8A0FED
3DA9AA18
3D96AC8B
3D3C18B8
3D399426
B8D9EC1D
BD6C810E
BC87822A
BCBDEA9F
BC1B8D3C
BCA33ACF
3D49645E
BC3E9020
3C965270
BD1DB280
3C1C54D2
3BE39454
3C863EF8
BCAF1E50
BCE60793
BDA61247
BD59EB10
3C83D70C
BD340C8D
3D157885
BC3229D1
B93F10BC
3D2C4084
BBEFAFEB
3C66CBDC
BCB453CA
3CAFEB46
BAC1E750
BCEF05E2
3CD115F8
BB92F73C
399927C2
BD09D368
3C1B3B01
3A26DA99
BD11BD54
3D147084
BCC56B80
3CC8FBEB
BCBD4DBB
3CDE95FC
BCAE4C38
3C8AE19F
3CA3F9CE
BB10D1D9
3AD2B2E6
3BD50261
3914478C
BD1B58E9
3D2124D9
BD396E5A
BCAD0E91
3C444C0D
3D6C99DB
BBFDA59A
BC90C642
3CAD3ECE
BD51D07F
BD59B106
3C959E1D
3CB08DCD
BD3863AC
BCE33CF1
BC8C1645
BD20EC3D
BCDFDAED
BD41BE2B
BC5A3450
BBF8DABE
3C51124D
BAAA4487
BC465D21
3D1F2F43
BC83619B
3D313660
3CA9E794
3C1818BF
BB5078DC
BCD8D4EA
3BAA11E3
3CC6637B
BBED9078
3D21D125
3BCDB62A
BC560EF0
BCCAD07E
3C5A453B
3CF5DA90
BD20E867
3D15BA8F
3B048A84
BC227A17
BCC608F3
BD43AC49
3D17239B
3D171E43
BD2B0029
3AB51040
BBA99CB0
3C2D976C
3C90DCB6
3D395608
BD14EB78
BD1416E6
3B2B31D0
3D1487BF
BD13A563
3C747EC4
BD4BA80A
3BB250A8
3B2F1961
BB151830
3C9AB34A
BB9272D8
BD37F0B3
3B223E91
B9A6F3A6
BD32B532
BD1DF631
BC8570F0
3D0B352D
3D609928
3DB2F031
BC2BF8E2
3CB2ACAE
BCF2BF9C
BD4BBDE8
BB7B572A
3D63367C
3CBC8945
BD12F86C
BD62DFEB
BD65D6BC
3BC54C8B
3C34406B
3C6D6572
3D3AF07C
3D17E7BE
3C433898
BD30710D
3CA211FB
BD53C8B7
BC23E4C7
3D198CD3
BD0B9F94
BCC5BE88
3BE8725D
3B45DD27
BCEEBC43
3C8C5A43
BCA8DD24
3D3444C0
BB856FB1
BC02E7FC
BD5492FF
BD571D7B
3C0ACFE6
BCB9FD55
3BE9D67C
BCA7E385
3D563240
3D026881
BCF8EED1
BBFD540D
BD63CA4B
3CE112E4
BC2F629B
BD5D141F
BC202D73
3C9FD688
BCC2F081
3BB256AE
BCCEE122
3D301F2F
BCA49D43
BCB3213F
3BAFD081
3C41E5FA
BD3D9D1E
3C45E1F9
3C22A2A7
3C8BB196
3CCA3C15
3CEA6793
3D3DFAE0
3C1456EC
BD45456A
BC1DADEE
BC8F5613
BC87A0F3
BD3499DA
3BB41A6E
BD35B7E2
BD350DC4
BCB5BA73
3C3B3609
3CDBDC88
BCC586DB
BC809E4C
BB51D99A
3A9C9DB0
3D00C15C
3CADE64C
3CC8C32E
BD0A2102
3C9E8702
BC9EEF0F
BC6B48CF
BD02B0C2
3D12114A
BD0756E4
BD07004F
BBBD52E6
3CBC72DB
38C5271D
3C234F55
3C95E427
3C8D9EAD
3D3F7628
BCAD3A05
BD1CC4AF
BC24A5DB
BC0619FB
3CE51679
BC3B62CD
BCC70F4E
BCD2FB60
BBCA1CD1
BD49C831
3B5AE230
3C680E29
BCDFA13B
3BA5D7AD
BCA0D4F6
39925DAE
3D07455C
BBE64CDA
3D393399
3D1735CE
3D202A4C
3D0198C2
BD102F85
BC968F8E
BCD8628E
BCDEF7E8
3D0952E5
BD117A65
BD0E286C
3CCB284E
3CBBDFCF
BD097091
3CBF12EF
3D3EA5A8
BC9D8566
BD378BDD
BD246727
3D186FA3
BD3D2763
3D22A057
BBBAA4C2
3D0AE77D
B9AB0487
BD325CF1
BD149ACE
3AFDAA56
3D0AAC68
3C9FBDCE
BCA136EE
BD518670
BCDA6AC5
BD3A9902
3C272CF1
BCFD64BB
BAB7E62E
BC867B75
3B578933
3CA4264B
BC99FCB0
3C2B9500
3CF8783C
3D206CA7
3C9138E2
3CA54AA4
3CCDDA56
BBFF475F
3D43C339
BC028877
3D0A5818
3C8A3A2A
BD036E2F
BC1F6815
BD48CADC
BD45F930
BCBB24C0
BD49C4AB
3C984900
BC41FA8A
3D1B4E51
BCB20A7E
BD0071A1
3D18A59E
BC8E1DAD
3D1AB4A0
3C84385C
3C3B6734
BCF6DE32
3D321BAF
3C4BD1A4
BCEE248B
3CBC2F3E
3CCE491B
BCD61B8E
3B249A77
3C9F6AF1
BD3030D6
BD4D2503
BC712A2C
BD18EFEA
BB896B3F
3CB2D2EC
BD0361BD
BD41ECD5
BC275999
BD4472F5
3C7C96D0
3D2D5C8F
3CE2E94A
BC9717FE
3D03F12F
39FDB6B1
3CBE9DD7
3D47A8AB
BCBA5DBE
BD1527E0
3D335FAD
BB8730B5
BCA2D012
BD08523A
3D198BE0
3CD5E1DA
3C63144D
BB0D07AB
BBC6377D
3CD7456A
3D131A07
3C56908C
B9FC5FBD
BC85A885
39E67010
BD081444
BBA58CD9
BD0DFD3F
BB9F781C
3CF0A666
3D368446
BC3F21FF
BD4CEB23
BD2FD951
3D0733CD
3D152820
3C97A425
BD3C3870
3D0A48D9
3C00DE25
3CC7DA54
BD30C314
3C979C4F
BD080DCC
BACEDCC5
BB129FE4
BCB649FE
BCFB5FB2
3C9AFC1A
BD041658
3CC02943
3B1833EA
BC134C36
BD3C19D2
BD1921A7
3CFDA266
3BBF5244
BD0BC2B3
BCE400B4
3C0DAA15
BD039828
3B269CC3
3D1C9E62
BC3B94F2
3CFCC305
BCEB8407
BC44F23D
BD003635
3CE0A666
3C625740
BA858175
BD436FA7
BD34882B
3C81854A
BCCD1FC7
BD494421
BBE43B79
3D3B180B
3CCB33A2
BC1CC3A8
BD4734C7
BCC1EB7E
3D3D086E
BB84C9A5
3C36DE7D
BD39639C
BCEB437D
3CBA4667
BD132017
3D3D5156
3CC37371
3D0F5187
BD17E6DE
3CB785A1
3C9F2EC0
BD09CDA6
3CEFD798
3C127B59
BCFF41EB
BD3EBCA2
BD3CA7D3
3CF4841F
BD13A866
BCF45E91
3D32E933
BD0D8990
3CBC132C
BD3E3C24
3B2D424B
3CA36110
BCCA7800
3CDC730B
3C44F375
3D15B622
BC9C0D55
3C9BBA43
BD08A7E5
BD275B12
3D2DFBEB
BC395CC6
3D1D48AA
3C2E67ED
3D16DC06
BC983D1B
BBADE71D
BC786E2A
3CBDE8D4
3C1860F3
BCD9F572
3C808CA3
3C981A8D
3D0D3805
3CB8EBA4
BD367D97
BD443F33
3BE39808
3CB09C9C
BC47A81C
BD03CCB7
3C37F097
BCE79B68
BCCFCAA4
BD4AF1DD
3D280527
BCDC24EE
BD21AADB
BCA4B9BE
BC6BB227
3BA8C3C6
3D05EC96
3CF6621F
B9CC0E76
BD038958
3B2B2119
3C2B1269
BD1E6D38
39AFFB5B
3C9E802E
BCD7B673
3AADB796
3C905390
3D46353F
BB1D93B6
BBBC51E1
BCE5C2C0
BD0ED532
3B2CA591
3C0D42AB
BB57AAF2
3D1DAD54
3C7E23C2
BCE377E3
BCDBBC8A
BCEAD976
BCDDCB6D
BBC0B580
BD1E9C0A
3CFFFFAA
BD48D145
3D34E699
BC3B0920
3CCE9BFA
BC56DF40
3C8526AA
3CE2DED2
3D318525
3C26418C
BC7AA374
BD1E374D
3D44221F
3D1687DF
3CC10C56
BA1BF1D6
BC8B7760
3C9109C2
3C03C6C0
3D3F4332
3C6A8EDC
3CF66E26
BB839C3C
3D16E0FC
3D4AE0AC
BD4C5028
BD2E94B6
BD03A5A2
BD3ED5AC
BCB78662
3CF45AE5
BC5A3DBA
BD3E3B7C
3C019AE0
3CCEE6FF
BD296630
BD0D2166
BBFED9A4
BCDC9393
BD2927DF
BD4B0C8B
BC2A95EA
BBC06C9A
BC4E3567
3C22437C
3A26F0B5
BC028DC4
BD056853
3C271F73
3D3ECD02
BD210885
BC919C27
BC81753C
3CAB93ED
3D3E9AB1
3A8FB5AD
BABD511D
BC6AA944
3D12486B
BD3AC124
3CEED32F
3D3FC165
3D44627A
3C9F2C29
3D40C7DB
BD156629
BD1138B8
BCBCBA41
BD3F4D16
3C569ECE
BC9D0147
3B45B319
3C2BCE91
3D65689A
BD1EDA43
3D0D5C2E
BD408187
BD39FCF5
3D2A13BC
BCEF6559
BC5673A8
3C4F570B
BD3B4F40
BC13C562
3CC51F9D
BCF65875
3B452DFA
3D5BD91E
BD04B710
3C9DA42E
3D1F4506
3C13F16D
BC3090F6
3C94EAF2
3C679E0A
3D31DD83
3C053803
3CAE7678
BD13F74C
3C4918C9
3CC54FA6
3C606227
BC51F6BF
BC647418
3D2431AC
3D0118F8
3D3D2AE2
3D9A25D9
BC9B80F6
BCBA9089
BCE12F4D
BD32D770
3C25D92D
3B344CA1
BB8F2983
BBCBC74F
BC70E838
3D2EAD09
3D823171
3BCF4331
BCC41BEF
3C8A44FE
3D4B2016
BCA081E1
3D1B2A63
3C4AD4F5
3CCB8642
3CC0ECD2
BD3BA17D
BC705443
BC3A556F
BD2A6A87
3D299BF5
BC651FEA
3C8BB0C2
BD552236
39BDA3A8
3C03B244
BC900D1C
BD1C9593
BBC5714B
3D3A8973
BD81B67D
3D233F78
3D2961BB
3DCC7889
3CA3789F
BC5EBDC4
BD75862E
BD3361BB
BCC3C04E
3D16CCD1
BD285169
3C6523E8
BAF7EBA6
3D063ADC
BD53E41F
3C8C3CF0
BC070F94
3DF56078
3ABB0FD6
BD06545A
BC650CD8
BBFB7A0C
BD172874
BD8D59FE
BD4D79E0
3D3299C7
3CE0B666
BD0245A3
38E4F562
BD600B08
BD3AD2D2
3C88C8ED
3D2C8EF4
BC700224
3ABBE52C
BD3914CE
BC359391
BC39CC1D
BD7EDD9A
3D0A258F
3CD349FF
BC5580B5
BCCC462A
3BBE9418
3CB4C9E1
3D37C3B3
BC913AA1
BCFEECAE
BD5CB398
BD46CB98
3DC642E1
3D381C6E
BC22F00B
3C80EA51
BCB9E857
3D4E6B4C
3D9268E0
3B88D04B
BD17FBAA
BD66517B
BB9C879E
3AA9B4B9
BD368755
3C3EA48A
BCEA3D7A
BD80BD8A
BC77C972
BD89FF64
BD7AC20E
3C29D803
BD801FDE
BC0F6102
3D8D4AF6
3D5BA0E1
BC1BF4CA
3D893340
3D7CDECE
3D75C06E
BB97D792
BD5E8730
BDC6E4AF
3D055AAB
3C7B127C
3C884787
BC3FE6CF
BD6B28EB
3D14B2DE
3D1FB093
3D38E266
3C72554E
BD51C895
3D7F8FCF
3DA217EF
3CFC2855
BCE0A717
BD2B6183
BD4DB536
3CAF9623
3D64E42C
BDAFA2C1
BD9EF6BC
3B946257
BD851D27
BCE8494A
3D2AF861
3D905FE6
3DE155AB
3D0AE1FF
3D930E4D
3C96C38B
3C9318B0
BC43CAB0
BC8864A5
3D3AFD8B
BC33487E
BCC0A963
3CC32C05
BDB9057A
3C78C0B6
3CAB4B18
BC98E650
BA8A0E5D
3CB3749F
3D7EAD9A
BC073256
BD98B7B6
3C76DBFF
BCF6345F
3D22A37A
BCAD8FA2
BBEE7112
BCA1A44E
3C6BE53E
3D095DB5
3CB3C0FD
3CC44D3C
BD1784E8
BCAE0AD0
3D62E147
3D75A512
BB99D4D8
BCAA3BE6
3D484C25
BCDFD988
BC2A4E88
BC5118D4
3CBB589D
BAA07F41
BD8C38FC
3C8541C1
BC24418B
3BD4D97E
3CF6B02B
3D0A7B99
BD50081A
3D5E0E02
3DBD442E
BCF7C49D
3D2438FF
BC45A621
BD274A22
BD08BC23
3CB5EF23
3CDB7F37
3D1FC7AC
BD32B4FB
BDA68016
BD239313
BDC37F7C
3BA0311A
3CE01FD5
3D554965
BD48154E
BCCCAC24
BBBB2DCB
3D9A287C
3DCFEE9E
BC0FE865
3CBB32E8
3D0307DB
3CE098E0
3D1B281E
BC219EFA
3D1609E0
BCA90AC4
3D21B44C
3C02B007
BD122CCC
BD4A5BFA
BD3484A2
BD3C1BC3
BCC50B0B
BCC06CE4
3C657A09
3B90F77F
3BFA92F2
3D46EB40
BB9DE136
3B7041B7
BC049585
BD07A2E8
BD1B6053
3D50A654
3D5506A0
3D127D4F
3CC08BFE
3CB86C3C
3CCA5A96
BCA57215
BA9CB09D
BCAF4E56
3CD161E3
BCD5993A
BB978B19
BD68EB84
3CFEA7DE
3DEB90C5
BD95735A
BC69CBE8
3B881370
3C954206
BC9049BD
BD039FF8
BCA1AA7F
BE1CC9F3
BD8B3416
3D0FA73F
BCDAF3B9
3CABFD6E
BC019D16
BD23888A
3D046FF3
BBAB3686
3C964226
3D2029DA
3CE34E2C
BD99148F
BD4097CA
BCAA15DD
3C34112E
BD0AD1B9
3D33A544
BD95CCC0
BD3E3D0D
BA55A1BA
BC8C18D8
3C60765A
BC4F3DFB
BC684B0A
BD6A5908
3C15C4EC
BCB14D82
3D4668FD
3CD3F3E3
BC55C9FB
3D1FC4A7
BBB0FBA8
3BBFB18B
3CD3AE9E
3CE64612
3B58A0B0
3BDDBB90
3CCB9595
3D318602
BC42A2A0
BC82B211
3D252DD9
3D2BC8A1
BBD97089
BC872D70
3CE7035E
BD24242E
BD1BF3DD
3B3DC9B1
3D12329D
3CB73F4C
BB69FAA0
BC895221
3D2DBA8B
3C1B5A91
3CA28084
3CCE3844
3CA9FCC4
3A139698
3948FA8F
BD810391
BD28C59A
3C026480
BC461BC8
BCE13BDA
BC49F9ED
BD2F2A0F
BD3FCD76
3A2CA677
BC494BD7
BD225216
3C9C026D
BD424C23
BCACC769
3CFBF4CF
3D3D11A9
3CA8C797
3B64AE7F
3D1513F0
BC59B0BD
3B8A866C
3D1C21A8
3D5776D9
3D2F2EEB
BC2C9768
BD2CDED6
3B3A4D72
3CB3052C
3D1A5860
3D2FC2E5
BD3AC6DD
BD0BD77F
3D41EB2E
3C62C3BB
3AC4B979
BD47BAD8
BD85F3B9
3D15B230
BC87E77A
BD05FD30
3D44D9FE
BC5C97D2
3A6A9508
3D65CFFE
B9FF0430
BD28C7F8
BC145F96
BC4F7612
BCAE8E6F
BCA8A79E
3CF19521
BC9777E7
3D40F819
BCAF7E4C
3D2B6DAB
BD04FDF8
BD069A9F
BD5BAED0
BCE0B715
BA520F7A
3D0F0209
3AD66C45
3C9670F5
BC229850
BD2590F7
3D3F4754
BC68074F
BC6DB7F7
BC09A6E2
3D1FB603
3A974FE1
BCEB3ACA
3BF05BDA
BBF70085
BBC17BF3
3D50C6DD
BCB7345F
BD24BB4D
BD400231
BCB1E988
3C21ADE3
BC36A423
38ACB77E
3C81EED6
3CA196C8
BD6FCA44
BD89C6A9
3D2AE6EE
3D341194
3D1A4B0D
BD111C2E
3D29C648
3D044FBB
BB4874B9
BC7B0353
B8F6B138
3C2F5E80
3D398342
3D277B0A
3D2D21AC
BD2780C1
BD073A8D
3C442D23
3D358601
BC3BBF00
3C84336E
3CC377D3
3D443D79
3C7C618E
BCC7252E
3D0385DE
BBE02DC2
BB666D85
3D331F78
BB0630BA
BC8ED187
3CF570B7
3D3D6166
3C713040
BD52D036
BD03F0BA
3DAD2BC9
BCD49E2E
3C0CCEFC
BB4F30E0
3CB31227
3D232D5E
3D0EED79
BD3D0B6D
3A3DA423
3CDEA204
37C4A989
3D5064CB
3D691A0E
3C84B5A7
BC70F172
BBCB782C
3D6DE4C1
BD9DAC37
BD1867D5
3CBA86C7
39C72E37
3D3E1DE4
3D208A63
BD998BB8
BB0E75DD
BC2CBB68
3D38F460
3D691637
BD50C08F
3C9584C4
BD198F44
3CD2BE6E
3D65FC1F
BD24D674
3D137EC3
BCBB58A7
3D260F68
3D74B34B
3D2AB078
3B8FFB04
3BC058F7
3C4015F3
3CE62F4F
3D7B6EEA
3DA4D339
BCB39748
3D44DDBA
3CB0C990
BD055DAE
BCA5F96E
3D4C9B1D
BBF69B15
3D3EC6B6
3CFD2E20
BCB22977
3C9BA3ED
BCEAB6A5
3C811198
BBA49003
BB475D38
3BA9E13A
3CCC58D6
3CA03CBA
BA8E3D52
3D68A533
BD1F3883
BD7C69D7
BD844D32
BC49F2F7
BD53CE5F
BBC365A5
3CB5B8DD
BBDFBA46
3BB143F6
3C35C934
3D8CCB5F
BC2C73EF
3D51055A
BC7044B7
BB63121A
3D98FF28
3B016E67
BCFC4C38
3CFF8868
BC2E3B4F
3D8F5381
BCB235E5
3CC5B94D
3D04FE10
BCCAFC01
BD0FF9CF
3CC843DD
BCE770FE
3D09F7EE
3D10F35D
BD4F0162
3D523EDF
BCE63198
BCC32970
3D79BFF1
3BBCBAF2
3D021936
3DA4A3C2
3CBEC960
3D7B69D5
3D38230B
3D2E0679
3D1AFEB5
B8F9D0C9
BD2C0A3B
3D1B1968
3D3A32B6
3D11C8B1
BD92AB98
BBCCA87A
3BC8BC9A
BC2F807C
BC9B89AA
BC7FCAAA
BD1B791C
3C675D07
3A5D2933
BC79579D
3D1AA038
3D4BBF95
BCC7A23F
BCBE6077
3C979C98
3BE1BEC6
3D13CAEF
3CC25CE5
3D08F3E5
3D28D30E
BC1DD0A7
BCF4BF3A
BD26BA9D
3BA0C85F
3D43A2AC
3CA9C501
BD658263
BCB1E0FC
3D14D66D
BCE0F4B7
3CA5BAD0
3C839AA9
3B567E3D
3D50EEFF
3CA485C8
3C69267B
3D680407
3D84F11A
BA4A1D4E
BC194045
3D5FBB39
BD63693F
BB8CE342
3887F886
BD0A8D8B
3D6DEC42
3D6242D8
3C324BC2
3D3506B7
3AEFA536
BD38C82D
3C59964A
3C93D691
BD3AEC5B
BD881615
BDAC8977
BD1090EA
3B1F7055
BCA19AA7
3C6243E5
3CFDC97F
BD083068
3CA0C9BF
3C0CA9DB
BBF42A45
BD1F6AE3
3D350188
BD17C51D
3C107C06
BC9224C8
BC26FDA0
BCCDA6F3
BD086E83
3D274702
3CBF9CC1
BB9B0DBC
3BE75268
BCCFC11A
BC05C3B3
BC68C867
BD0E9385
BC32582D
BCD9B33D
BCFC963D
BCD5BFCE
BC9AA109
BCAA7C3C
3A6A66B3
BCAFA0BB
BC106AEA
BD06C703
BD0DCC4C
BB4E01E1
3D591D0C
3D6E6607
BCB55157
3BCE0BA4
3D126B20
BC3E62B1
BD68964A
BC25CE7A
3D5F80F5
3D8A0509
BD4B6377
BD47FCA1
BC7BC74A
BD96B42F
BD374113
3D07E11A
BC63953F
BCC6CBE6
BD062FD7
BD2F8843
3C323963
BCC2B7C2
3AD3A382
BAA694DF
BD39E9E0
3D381E14
BD2D9541
3CED7CC0
B9EBC8CB
3CB3B8E0
BD0C7E41
3BCE6825
BD10BBAB
BC8C1D4C
BCCDB424
3CE68A43
BD67B99B
BC6B123E
BBC5122C
BCE90A9F
3CFA70F3
3D4663A7
3D1DE6DF
BCAB3833
3AABDD00
BC7A4206
BC32FBB4
BD0A7E14
BD1FECBE
BC4B97E8
BD1802A9
BCB32163
BCCF3347
3D2998A2
3C614DCC
BB88E50D
3C2AF223
3C744864
BC982CEA
3CFE1BFA
3CC6C5BC
3CA1ED0D
BC9A481A
3D1E1E09
BC7F0713
3CE5E781
BCE6C4A8
3CB89A78
3D1BFB87
3C85A4C7
BC9E9072
3D1C616B
3D8746C4
3D95F776
3D838C7B
3CE47955
BAF52DAA
BB902A3A
3AC00F2C
3BEE3F23
BCF91687
BD012029
3D08BDB4
BCEACD39
3C1D89CC
BD2C87D6
BD58A64F
BBEC2B7F
BDA1AE98
BD09701E
3C8EFCF6
3B625DA7
BCF66BD7
3D1E3EC3
3D8E3B48
BCEF86D5
3CCA4DDF
3A8B8B33
BC27CB35
3C0E38E2
BD2FBE87
3BAD0298
3C9CB16B
BD0F67E5
3D2CAF61
3C9CC39C
3D51DEB3
BD3F5037
B8AA8F7C
BD12579A
3C8F5963
3D6D9A6C
3C5DAE8E
3CEA4B36
3C265467
3BF9F384
BC9321EF
3D2C0A50
3C1B468D
BD29DCB2
3D4A8B9C
3CFB42FC
BCB1CDF7
BD38B20F
BD0446E9
BBEC3340
3D2CFD4D
3CFB25B0
3D20B2D8
3C4A00BC
3C5A958F
BA933418
3B85FB67
3CD0709D
BB7118E1
3D40FAAA
BCD9881C
3CE2F980
3D2A64B6
3B6C7D68
3D37DE14
BD2E0073
3C8BC662
BD2F8666
BCD4DFF0
BCB39650
BCD09923
BC171899
3CC62681
3D238C48
3D1488DF
3C9B117E
3D2CC364
3C2C0547
BCF30CC2
3D0C97D5
3C781703
3D26AB44
3C72F3A5
BCF41B12
BC9DDADD
BD20EB22
BC1F322F
3C3F4258
3BC502A7
3BEB8367
BC3C99A8
3D32423F
BBA52DAD
BD474B69
BC89412B
3C8CBAFA
BCFBD345
BD3F0ACD
BC3F8897
3CC61175
BCEFF884
3C407D13
3A5B092F
3C69C8F0
BCA67A24
3D488C3D
BD166D67
3D211D59
BB9282AC
3D3442FB
3CDA1F39
BCAA858D
BCB06B1D
BCC5829C
BA617D2A
3CD35487
BBA20F17
3BF52170
3BFCCBAB
3CC643DC
BC2772DE
3CAC2898
BB9B9F75
3C01B9AC
BB593110
BD471194
3CCB4107
BC9C66C6
3CFFD89F
BBADCAAD
BD399671
BC8ADB0E
BCA3181A
3D0D6FFA
3D3C2F7D
BADF753E
3D04B635
3D3C152C
BD2A12E4
BC2724D7
BCA57BF8
BC178C43
3C936635
3C818538
3D16588A
3D28B6E6
BD02B579
BD277ED4
BBB690BF
3D1BC514
3D213929
BCADF770
3CC18395
3CDDA3E4
BD383F3C
BBA7E584
BCD155D7
BD182179
BD404FAD
BC6FB610
3BA4B517
BC5EE1EE
BD17C5DE
BD1DD07B
BB8B8723
BD15668A
BD46CF37
BCB8E206
3D21C6B8
BD121461
BC53A190
3B0FB380
3CA7B4D6
BB896633
BCC2C6F6
BD3FAA67
3D49141F
3CC962E0
BC8C7E80
BD334092
BCA65BED
3C88F930
3C7D1BBE
BC7591F3
3D122484
BD0EB6C1
BBD063C3
3C110B17
3C07BBF9
BD457976
BD3DBDF3
BCE436E6
BD1C5AFF
3D394F4B
BD4ED5DA
3CCE6031
BCAD584D
BCD030CA
3D01DC8B
3D402964
3D246D2C
BC2C3DFE
BC440610
BC1F1A86
3D21C69D
BD3ED248
BC6FAEB4
3D28A1D8
BD0FC884
BC0E00A9
BB55B5CB
BCCB0B33
BD2447A0
BC9983FD
3BBE62A7
BC2E9E19
3CE20294
3CC65912
3D455B3B
BD463142
3D2C6B94
3C6EC578
BBD78524
3CF4CB19
BD447139
3C7A1E18
BD410A12
BC356DB5
3D249070
BD0E6538
3D15BC8F
BCE9F159
3D4320B1
BD39E7B0
BD131A45
BD1B9369
3CCE2CD2
BC8C38DD
3D13F5D8
3D051B7F
3CCB59EF
BD481E7E
BCE2C6F7
BD3B917F
3CCF7412
BD0046D7
BD491D0A
BC920FF3
BD030464
3B33EA8B
BB5F0574
3D41FE91
BC917644
BCF80038
3C211FE5
BCE39A4C
BB80F7F9
BB6778B9
3CE149F9
3CE5C746
BCB30776
3D062509
3CB3A448
3D11D131
3D212083
3D31D183
BCB956CD
BC5D5648
BD4C4925
3CFF7E33
BD08D9B2
BCFDFCF0
BD31B11F
BD21008C
3D46B62C
3D216F08
BC628FDC
BCFC4D66
3CCF2CD4
BCCC9193
3C2FC1A8
B98411CD
3D289600
3C8ECF36
BC059D88
3ADAF9F2
BAA9F540
3D33C122
3CDE10BF
3CF8810B
BD0A038E
3C0268BF
BC8CC731
3CF4985C
3CCF46D9
BC9D976C
3D373243
BD364259
3D09839D
BC15F3A5
BD435EE1
3D2F25B9
3A46F30E
3D2C285F
BCA94338
BB3E7B7A
3D48D9EC
BBF202A9
3CE68053
3D3AF84F
3C3ED1C0
BCB65085
BD45262D
3A56CA92
3CDC0464
BD4451BC
3C84241B
3AD8C4C4
3D33323D
3D192258
BC978004
BD11652C
BC404242
3C92E2AB
3CD39F26
3D35FF68
3C962AEA
BD4CADA0
3CC2BEC5
BD00189C
3C99E9B5
39E420AD
BCDB397E
3C78120C
BCE0715F
BD00C2E6
3C458898
BBAF6F83
BD02BD0B
BBA7DF3A
BBD3C577
3D4230EA
BCA6F5C0
BD389CF9
BD005304
BD2FB143
BD39377B
BD30A7BC
3D14CE5C
3C7FF9AD
3B90CE8C
BD0071FB
3CAC3ED4
BCC90FAA
3D21F1A1
3C6F9AB6
3BE9B755
BCBB293D
BD01493C
3CBF66D9
3C9081F3
BD088D8B
BD0188FE
3D21C11C
BD0DDF4A
3CB253D9
3C2D3AB8
3C4B12A0
BAFE06A0
BC99866D
BCB9978D
3C82835A
BC1CAC48
3A890400
3CDFA380
BC3AE238
3D454A67
BCBFA73D
3CE76AC2
BC103FB7
3CD5E0BE
3C9EC6E2
BB4E2200
3D0FCB9B
3D47D4B2
3CB37DED
3CC584F2
BD33FFEA
3B603D00
3C0C7EE7
3D3A3A47
BC2501C5
BD363B98
3C8DB958
BA300D52
3C0C84DA
3D1EA8C6
BD0BCB8C
3CAF084B
BC479AB6
BD19DAB2
BCE62356
BCDC6BA7
BC543358
3C189C3C
3CD413C2
BA42A32A
BD2A77CC
BBC19DBC
3BB040C2
BD1AFF80
BCE49337
BB3DF5B4
3CFD016A
3D2FCE85
BC11E85F
3C7F3FAC
BD131906
3BC48B7F
3C7428A3
3D3827FE
BBE282A9
3D432D14
BD082D09
BD17FDDB
BCB4884F
BCBC5C5A
3C9B9EB6
BB4C6221
BD1BCD7E
3CAF1748
BD4E553A
3CFD8C42
BCF3AF2C
BCA11ED8
BD00467A
BD307F7F
3C85EAEA
BC03785C
BAB8F371
BD21C5DF
BC74C553
BCFA5B3C
BD238429
3C1DF5F8
3D64A7C6
3CB5A4A1
BC86DF6E
BD36880C
3CE9FF25
BCB37A0A
3D6908C1
3CEF76A1
BCE7DB73
3C95AC27
3BC31E0C
3CE98ADB
BB87C954
3CADFE64
3C3CCB71
BD93255E
3D007DB0
3CEA0EC0
BC7A8A29
BBCAC1E6
BC424830
BCC04681
BD665A3A
3CBB314C
3C193519
BB32334F
3D464452
3D844A60
BC9C41DC
3D315573
BA81520D
BC893471
BC57D2B3
3CCE2EEB
BD26D304
3C88ACA4
BAD4898A
BC9AEE1E
3D58E219
BD3A3093
BBFCADAD
BC91F42C
3D6E3580
BC249C88
BCE0519E
3D7813D0
3A14CC6D
BD5A7066
BD08DB8C
3C804C98
3CF8C0B6
3C863936
BD67489D
BD3B9915
3D21795C
3D23A5D3
3D49BA5C
3C5B98F4
BD09480E
BCFE9964
3CB07B16
3D6FE752
3D046BCF
BD307DEF
3D4C5EA4
BCBB8AF9
BD47C0F4
BD3EA224
BC01D675
BBC23ECC
3D5816C0
BC794952
3BAAD774
3CEE881C
BD0A24C0
BC1F6C42
3D66A2EE
3D1CED3D
3AB71EDB
BD381E95
3C8DCB6E
BD263DB7
BD9B33CD
3C23C9E8
BD9D8D2B
BCCC2912
BD97F4A6
BD16A7E8
BD4E87B3
3D54A3AA
3DFA245C
3CFE5759
3D65843F
3C8FF1DF
3C381733
3D8D8733
3CAB20CA
BCD6BEC6
BCC56D5C
3CE66A56
B9F606CA
BD39A154
3D20A20D
3CA24261
BD468FE0
BDB6416D
BD8AE75B
BC091EE5
BD00C91A
BDB5E2CE
BDAC054A
BDA4A24D
3D639162
3DC86F69
BD3863DD
BDC6C0C2
BBB1A3D7
3D8AA530
3D5657B1
3CF5E6CE
BCC11E5D
BC01C8C9
BCCE3E43
3CDBA74E
BD1AD684
3CA3CAA2
BCA2DEA8
3D24164B
3CCCA580
BD0B4AEA
3C8E699C
3D08101C
3C2C9D6B
BD8B2CA1
BCF7D26C
3B9B9AC0
BCBC842B
3C97F16A
BD64A8EF
3C4CA2A1
3D10975C
3D613633
3C5542F6
3CD156A9
3D30451E
3D7BBB88
3D264BDE
3CE8F949
3D426796
3D24DE1F
BC9B24F2
3D3C7761
BDC5744D
BD153E97
3A006700
3D720826
BB80C5C1
BD9439BF
BD0238DC
BCB1C88D
BC20896C
BCED9BBE
BD69F61C
BBF7FF5A
3CA4D591
BD8B0D5F
BD7922E4
3C7454A7
BC5EF4E0
BA96F7BF
BC93BA7B
BAA24A21
BD6AD062
BC1E4079
BAB452E0
3D465466
BD3E899A
BDAC8B1E
3CE9B7FB
3D410B66
3E40BB6D
3E13D16B
3DC56FE2
3CAFF6B8
3CB1520C
3C5145F1
3D03D6D8
3D1B1590
BD15480C
3DD42881
3D0B41F9
BD9288FC
BDD08279
BD72F709
3CE00E69
BD27FD24
BCB68BF7
BCDA992C
BBACA848
BD301D0B
BC99AEBB
3CE5EA56
3CFDF4A2
BCDC5694
BCECF344
BD3DE16E
3CD15EE0
3C37DA75
BC4EB507
3C75E1B5
3B46A855
BD18FAC3
BD0AA848
3D0C1892
3D157245
3C54851C
3DA997DD
3CAE19D6
3C621C72
BAE9458B
BD5E2BD7
BD350232
BC8F0425
3D6385E5
BDEF9DA4
BDF1516D
3BFFE217
3D3B9A12
3C16B9BB
BD407A9D
3BDF8F3B
3BA136D1
BD299609
BD274635
3E001AC9
BB9F0D55
3CA4242B
3C418716
3DE4270B
3E01D401
3E0AF2DF
3D65857C
3D206E49
BD686652
BCCFA6D3
3D3E8DA2
BCAD30C6
BC0FF64E
BBC78DE7
3D2367DF
3CB64C03
3C336565
BC2289C9
BC2DB650
3C919687
BD291BA7
BD01EE8C
3D25A3CE
BCB88A95
3D16F607
3D05EA45
B99DB885
BB3D4EF4
3CC281E1
BC2125AA
BD0F0CC5
3C532E40
BD3D0AF1
BCFC2C34
3D238396
BD086D48
BB96E39F
3D17B4A1
3D548452
3C44C96A
BC7A67B6
BD8D8324
BD11699B
3DC62281
3D4D8087
BCE2043A
3D35DFF1
3D954059
3CC9F1F3
3CAE224B
3D517398
3D2A52B2
BDCC5950
BDBF0F2B
3A816B9F
BCBBE54D
3C27F3EE
3D5F4794
BC14A21D
3CA9AE57
BCC3725D
BCFFEF08
3A6BD243
3D13EA27
BD06E4F8
BD1AE6BC
BD891E40
3D0FDBBC
3D866A51
BC5CCEF9
3D2F097E
BC619377
3D837164
3D890427
3D84AF8D
3CD38F4E
3CAD8AE8
BD45F85C
BCF34587
BD0DC7A7
BBE2E321
BDAEE06C
BD9393B5
BD65B367
BD4939F7
BCCC6956
3C87B7A9
3CFEC182
BD35AF25
3CDA4B29
3D07A19C
BBFD288F
3CE09A52
3CC8E062
3C48DD72
BD1A5F76
BB7978B0
BBA7F3FA
3D41FF91
3D02D177
3D3158A3
BBEDDAE8
3C2D48B4
BD146A4A
3CED91E7
BC81898D
3D3EE3FF
3BE20B81
BBF90258
3CC837DE
3C0F4E04
BC9BAEF0
3CCAAA53
3CC7FDF6
BCA4ABC5
BD9F8A88
BD3EBC19
BCCF5071
3D5FF767
BD4896A6
3C97C358
3CC9D903
3C8302B8
3D041693
3CC50B08
3D2BA234
BD1B35C1
3C844707
BD803B56
BBC73F1D
3D7A2498
3D769284
3D28E0AE
BD70C166
BBD049B2
3D4DA81A
3CAD245C
BD23280B
BBCB73DB
BD409AB5
3D309011
BD394385
3D06A2CA
BD1F628E
3BBDBBC7
3C3A6292
BC4E5C45
3C862952
BD3E5066
BCFC6FEE
BCAADB5F
BD62CB06
BD8D9B91
BC792246
3D4E7585
BCC82A65
3C831137
3D212C85
BD539BDB
3CDE2019
3D4CA5A1
3B307E1B
3C0624A0
BD3F56C1
3D166F4F
BC42A8F7
BC0E1B7B
BC6BE0AC
BD736020
BD3EFAFF
3D060037
BCFFF205
BC769B19
BD35E42C
BCB16384
3D37C536
3B70F29D
BC520A8B
BD320E73
3D0EBEF5
3CD55B31
3C6F7507
BD0A6320
3D01C22B
3D80244E
BD195CE8
3D313F32
BC8FDF2B
3B26BE7A
3D050111
BB6B76EC
BC122BA7
BD016210
3D3259CA
3BEDD79F
BCB8D76E
BC102F0D
BC479CC6
3CFAB6E1
BD49BF37
3CE3403D
3CF0B9B4
B9C61579
3B1F8C0E
3D8F8A40
BC9DF7D5
BD1252CF
BD88EA5A
BC80924D
3C521E58
3CD61BED
3C983865
BCC13B95
BD4081A4
3D21950E
3D3F2362
3CEA3516
BA758545
BD29287A
BCA22951
3C8043E3
BD525CA2
BD88AED3
BD38B1D6
BD468E5E
BD161E77
3C87D0FB
BD3C7666
BCD8CEE2
3D0017E0
BD22E376
BD43F071
3D32E7D1
3D232BD8
BCE6C7E8
39C2EF17
BD8671CC
BD93077B
BDD2CD4E
BCB6117D
BB9809A5
BD566F43
BD2353B8
BD17A564
3D6C52E8
3D09FE48
3D49609E
3C59E0B4
BBA826FE
3C3BAB30
3DB1B9AD
3DADD0D9
BC72B959
3BE6DC1D
3CB6248A
BBF7D7F3
BD39708D
3D1A1EB9
3C719DB5
3CC928A5
3C95C915
BC7BB898
3CF70E1B
BCB418BE
BCCDD67C
BD3E8CDC
3C6A1298
3C1AB440
BD20D70B
BD5F3221
BCBD27AE
BC05DCF7
3D0A1651
3C1FE6CC
3C8AB19A
3C6E6E84
3D285777
BB289CBC
BD8CD287
3D444152
3BC4D26E
3CCBCDDB
BD560C96
BDB5BDF2
B952C92D
3D07C7A2
BD3630EF
BD40B2E7
BBC6045D
BCE39729
3C6DBD1F
3CA6D62A
BD8E9EAE
BDAD8328
BD24779D
BD217F20
3B3ADE32
3D8746D1
BC1DF76E
3C844D6E
3D22EEE8
3D42A032
3D5CC3B7
3C909461
BD378726
BC88154B
BAF1C6A2
3D3E63E0
3CD2B3B8
3D28F3E1
BCFBF10C
BCEC1EE4
BD030EE1
BC7B9424
BD15F269
BD1A9445
3C6447DE
3D4EA685
BD7753D9
3C7862B5
BC129C2D
BC4638E0
3C2C2219
3C8E4805
3D75C54C
3D227DAE
3D089034
BD6E904C
BC00F4CD
3C87EAE2
3D2B01FC
BD8A8379
BC53378B
BD334E40
BD6E447E
BC7C2B7D
BC4760DA
3D20C489
BD15534B
BD88AE79
BCC87AF1
BD30A0A9
BD826388
BCE3F30F
BD2FE7B1
BD74544B
BCE1A570
BD4CFE65
BD238491
BC2EAD8C
BD852DD1
3D7B5BE2
3D26770E
3DBEEB08
BCFCA3B4
3C224D00
3D65CEE5
3BB57F1A
3DAF5787
BC98FACE
3CBA2094
3C512FEA
3C6AB161
BD0C09A2
BD10C953
3D3670AF
BD249846
3D7FA5A9
3D4434BA
3D3D03F6
3C034268
3D8C2B98
3CA07B88
3D18C71C
3CDD5F89
3B844B24
BCA3A4A5
3D2465FF
3D47F203
BB51F423
3B5C61B3
BD1E95F9
BBE497BA
3D276D0C
BC9C951A
BD86719C
BCB34393
BDECC0B8
BD973A59
BD15CD2C
BBA4FB76
BCE96B03
3C45B6E0
3D88BE92
3D967F66
3DE708F0
3DE1C6E4
3D4D7F01
3D6A7B9A
3BF6737D
BC350F59
3D0C47D2
3D6EB90F
3D823C91
BDB4E6AF
BD209F0C
BBC0D9CD
3D870685
3C644337
BAC915A0
BD316B83
BD02717B
3D5928B2
3C44A5B1
BD05AC4C
BC765671
BB508121
BD0BB1A5
3D35970E
3CF22012
BD096F62
BD464260
BD11FC8B
BCAD3FD6
3C046C66
BD358B7A
BC8D42EC
3C68D527
3B7E99EE
3B2DE4CA
B70EF534
3C918E72
3B9F638A
3D3C06C6
3CE82782
3C66C1B4
3CABF49D
3D1D18B0
3D4B5236
3BACF95C
3CDE46DE
3D169760
BAF5639D
BBCAE6A3
BC9C8319
BC6D1203
BD4461CE
BAB8E29A
BD9CA5E5
BB136904
BD887A10
BD0C83D1
3BEAB257
3CDF0815
3D79560A
3D02D989
3DEECACD
3DAD0544
3C19098C
3C3F3120
3D34B39E
BCA9C837
3C96E0E1
3CFA6279
BD3B700F
3D75F66D
3C5F730D
3D5BBC25
3C81E40D
3B877F0A
BD38B864
3B8279A4
BC1C284A
BD918B22
BCD0764C
3C210AE0
3C93438F
3D21590D
BA9E4DF0
3BD1D80E
BC604335
3C318CDC
3CFD43E2
3D8E921C
3CCA128F
BC6E666B
B83D3591
3C4D32EC
3D3ADCF9
3D06F547
3BFB5CF1
BCD2ADED
BD168D72
3D1E8889
3D12DE19
BD37E570
BCC667B3
3D3F3196
BCBDA113
BD495CB9
38A6138D
BCC22043
3CD4ADEE
BD08EB66
3D4A116A
BD18B721
3C83832E
3B528B6E
3CBCFD23
BD287DF7
BD54E110
BCAE2A83
3C6844D0
BD36A8EB
3CA791E4
3D02398F
3C815425
BC6AC099
3CC424B5
3CD724E1
3D603D86
3C681AF7
3D5FD73A
3D6E8A53
3D2BA0BB
BC4CFA9A
3D2BC07B
3BBC30D6
3D136E37
BA5987D6
BCD039C6
3C2F86B2
BB0E1762
BC6C531B
BCE2DCE4
BCD4AE9B
BD5EE84A
BD97B5BF
BC94F60D
BD7CF90F
BCBE4A33
BD0080C3
3CD2BCE3
BCA91014
3CA5E5CD
3D802F09
3C59C7DF
BC5BADAF
3D5CD449
3D51F876
3D1C9544
3DA638BD
BC54DF01
3D88F0D4
B91482EC
BD78C788
BCBA02AE
BD2F11BD
3D504193
3C8FF879
BD7AA4FA
3C021182
3D0DD239
3D32D929
BD1C64D9
3CF24541
BD5F5B53
BD5B0121
3D69B103
3D075A7C
BC537CBE
3C3BECEB
3BC69328
3D48F0D4
3B997EFD
3D69C017
BCF6EBE0
BCB63B84
3D9B4D93
3D595B05
BCD1E598
BADD946A
BCE61C13
3C97C178
BD02FC5A
3D0495B4
BD0D4216
BD3F4C80
3CCDAA88
BD0A95E8
3D13D5FF
3C1661C6
BD9849B6
BD49542C
BD0BCE28
3D14329D
BC1C3F55
3C789F8A
3D085CF6
BD641198
BBF89614
3D827B79
BC94946D
3D5DA8DE
3C9B9713
BD38C7FB
3D0961A8
BCCA766B
BD249703
BC6C2F2C
BCFFE65A
3CAE1DA7
BBCDF9FA
BD0A2B2C
BD5E1729
3B216926
BC0EF6C2
3D9B9F39
3CCF03E2
3C515328
BC4A7D46
3C004D97
BD06028A
3D354F4A
3C67049F
3D306698
3C8079E4
3C41F1CE
BC4DEBE8
BC95106F
BB8BCE1B
BD070958
BB2C1EB3
3D076FB4
BB0A3F34
3B7C43FC
BD3EE22A
3CAC4E57
BD215B47
3D9F3985
3C9F5022
3CC06A4B
BD474FEE
BD82F84D
3D82C0F2
3CA3DE0F
3BF66A1D
3C7C632A
3D92ABC8
BC943AC8
BD9E5960
3C083BD7
3D617442
3D31C0F9
BD2082D4
3B126F99
3C278A17
BCB81ADD
BCDFF86C
BB7EDE8A
BC4C0937
BD2EEAED
BC6341E9
3CFEC2B9
3D85F49E
BD5083A0
BC925ACA
BD22EE39
3CF69C4F
3C7F6476
3D14FB6F
3D7967EA
BD749B12
3D831099
3DAC862C
3B807C95
3D0D7B4A
BD41B330
3D640ABB
3D0C3BB6
BD5DE833
BD3A7BCB
BD9439C3
BC8A5A01
3C926260
3CE2539C
3B8B058E
BC3C8963
BC78DACF
BD1A7225
BD64CDC8
BCAA2E61
BCC33F4F
3CB2994A
BCF30E01
BB9C256A
BDB6A09B
BD86A20A
3B0BFFB4
3D6D58BB
3D2B0226
BC1900A9
BB774DF7
3D7E4D4C
3D275503
3D343AE8
3CAC6FE9
BB6DC47B
BC656578
BD40F2FB
BD51C6B9
BC937D88
BD250655
3CD8C4F4
3CFCC272
3C4D8977
BCF0C9FE
3D2DC2C2
3BD0BB82
3C9B0861
BD0072A9
BD28A606
3C2C2D89
3DA89BD6
3D360454
3DA33021
BC4F4345
3D2A3707
3CCEBD6F
3D0F967B
3C72E5A3
BDB3C9D9
BB7A51FD
BC98B2BA
BDA5D61F
BB3B10B7
3D4E951F
3DDCD877
3DAD2865
BDA50CBF
BE008DD3
BD5F1F2F
3DB4E0EC
3D99ACCE
3BF5E864
BDDC36E7
BE079EE5
BC70ABFA
3CFF1AF0
3D734802
3D8BAD89
BD473ED1
BC726940
BB475789
3D1EC5D0
3DAAC857
3D006DB8
3D2F729D
3DE6E31E
3BBD27F5
BBF2419D
BD5462E5
3D0169F9
BC0DE951
3D0A6FA9
3CFDA9F3
3C5FD17B
BD771CDA
BD1AD7A6
BB856D22
3C4647AA
BCA292BD
BA91F913
BD5DF6E3
BDA7D16C
BD487B83
3C20D55A
BC83EFC6
BD2D6D16
BCE472E1
BD26A8D0
3D6023C0
3D351B8D
3CBFBB62
3BF630CA
BD08EB94
BB60586C
3C3E903C
3D796915
3D10BD20
BCEA0400
BD66B065
3B5C0257
3D2515CF
BBA1DD42
BD1D74D4
3ADBD574
BD5E5458
BB38300F
BD0007B4
BD1FFE7A
3D4CAEED
3CFFE93C
BD01788C
BC3B9A9B
3CDB79B6
3D866940
3CCE367D
BC6DF82B
3C94B578
3CE05CE9
3B893808
3D10707D
BD15316D
3C18422F
3CDEFAED
BD4498E1
3D319179
3AECAD64
BC9C825C
3C46BF04
BD201DF6
3CA09CF7
BCFA4ACF
3C906A48
BD375FE8
BD26D228
BD2D8713
BCCE0DC7
BD30348F
3CE9D496
3B83C44F
BC91BFA5
3D4A7C4E
3CE10F6B
3D2EE10B
3D087E40
BC3AD698
BD676106
3B930100
3BE45B1A
3D555C33
BC4BDDB5
BDB9642E
BCDD152E
BBFE3C8F
BC8AA048
BD7CF252
BD636A9C
BCE38076
BD289CAD
BD87C7D1
3C2ED777
BCF8FBD6
3D4B1165
3D861B8D
3D23D099
3B4CFAB8
3C9739ED
BC74C4A7
BC9CC601
3D63AD1B
BBBAB7B3
BD41DF01
BD27B4AE
BC84FFA1
BCEFC1AE
BCB7DE53
BD417E2E
3BE1D32C
BD46DC5B
3B6E3402
BD4BDF7E
BD85FF5E
BBA2C5C5
3BAF3D90
3C924634
BD3E0B9A
3CE74DEE
BCB04642
3D53D057
3D6B0FF4
BCF96305
3CAE3806
BCD2BAEC
3C80E601
3BDE383E
3D13768D
BC28588C
BD45CC04
BA9E020D
3C955AAD
BD0FCDC6
3D45A96B
BD45C12D
BA75373F
BCCF74B7
3D2CE0B7
BCD1F93D
3C5C81AA
3D4BDB3D
BCEAF793
BC629ECC
3D3F2DA3
BD2D4312
BD12F917
3D2A81B9
BC711B88
3C887158
BD1DDC19
BD2363B9
BCCEFA01
3BC3A1D7
BD0256CD
3D20681E
3CE3C70F
BC21B999
BD664289
BD5479F9
BD4B02B2
BD14A5D0
3C3C6588
BDA485B1
BC0EE0F9
3CCF1B34
3AFADAD7
3D8D0EC4
BC541346
BD126453
BD0CAFBC
3CCA747E
3D990751
BC9C4A61
3C090B40
BD49F2CD
3D2586AF
3D1D51D4
BD2F3474
BC904BCC
3CD01455
3C897AE4
BC0DC962
BC73F9F5
BC1D78FB
3D1BA91E
3CBB1C4B
BCF6D4CA
BB214F79
BB8D16E6
3CF67CD6
3C84412D
3C8EA13E
3D74BFF8
3D4ABC27
3D076CC4
BD43BD9E
3C131BBF
BD4F6D78
3D108A8D
BCA16909
3CC6A837
BD36F658
BC8D1996
BAFA9473
BD16627D
BCCD6A55
BC8E7D9A
BD7A6058
BC96D538
3C8907D1
3CBA9742
BC541DFC
BCEF8747
3CCDD331
3CFC7549
3CA7CB5F
3A15C89A
3D0E5F3F
3D17EF16
3B780D87
BB259217
BC24D8CF
3D47256A
3CFC7D79
3D018F52
3D8CB9FD
BCA03DBE
BD78C9F3
BC3909CB
3CB6766B
3B84A26F
3D618F89
3C0E042E
BCB85CEF
3C90143D
BCC0DEB9
3C6ECC63
BC7BBA26
3C1062A0
3B11CD95
3D03980E
BD059048
BC917DF1
BBCFE7BE
3D53A4F0
3D3A5E04
3CBF98CD
3C92EA56
3D11C444
3C279310
BCDC9ED6
3CBD4917
BD62469F
BC91D289
BD1BE52C
BD6AC5CB
BAEBAC32
3CCD8222
3D481FE6
BCB26822
BCD4EF82
3C07FBBF
BCC403AA
3D012D37
3D2CB573
BD0B6367
BC9047A7
3B8DCB5A
3CFFB260
3D07ED0D
BC7318B0
3B8083A2
BCB54296
BD55D236
BD221FBE
BBB51391
3D52BE12
3CD08E74
3CB88274
3D063764
3D8F97B7
3CD8C260
BD5B0935
BD083114
3C9ABB1C
3D6FB0FB
3D79496C
3D53AB0A
3D02B848
BC53B05C
3D3307BD
3C71DEDD
BC8D1632
BD3C75A9
BD1A0DBD
3C922510
BD9DBB67
BBCD9301
BD18A086
3D251865
3D610E3E
BD2DB48E
3C34973A
3D62D75A
3D3D6D72
3B09CA0D
BCA38DD1
3B21C463
3BBC566C
3D7FB242
3D0AD98F
3AE576C8
BCD7A288
3D4AE95B
3D36DB90
3C900CB3
BB995139
BC453B22
3CE15EC4
BD23F00F
BC8DD4A2
3BF13927
3CCF5004
BBB1AE72
BC2A3AF9
BD64FCFB
BD08E3D6
BA6150FC
3CC4160B
BD930C27
BD38795D
BD7B662C
BD8CAFF4
BD189649
BD0EB3E0
3DB791F6
BC613BCE
BCD8C82F
3C4B8AB8
BCFE9B7A
3DA3D24B
BC08A43D
BD35E3B0
BCA9CB2E
BB05812B
BB9A8E3C
3CA95E21
3C9A9B23
3CA88297
BCCA1095
BAD8622A
3D7429BA
3D092D19
3CD7DB6D
3D6582FD
3D544F15
BC8714E4
BD2ADDDB
3C78CEE0
3CBFA596
3D2F5CF0
3C8A2F18
BCC23D55
3C8C53FC
BBC47131
3CEF8B6E
3C676093
BC9D0FB4
BADAA87D
3D0F5B01
BD1465DE
BD781250
BA14E5A5
3D547DE4
BD6CBC0A
BDEA5763
BD431F01
BBFD63E2
3CF69563
BD178741
3A319DFE
BD4CA94D
BD39666A
3B989A96
3DBF9E31
3D609948
BC11162A
BD144949
3D5E752E
3DD7C0D9
3DA99A9D
3C7FF8C3
BD225952
BD314479
3D9424DE
3D76D20E
3CF007F0
BD1F5385
BCA35391
BC17C614
3C8994F6
BCBA0C2A
BD437E35
BC909298
3C9A450D
3D3C005C
BD4A6974
3CB083E0
3C8CF829
BD5236B4
BD2BDF21
3D67C421
3BEC25AD
BA90C128
BC9466CB
3CCE9EB0
BD0B800E
BCA74D75
BCC46C7A
BCD7DEEE
3CAB1241
3C21CE93
3CD66395
3CF905D5
3CB65E44
BD1BF93A
BD02A2A5
3C4707EF
3D00ABB4
BABAF33F
BD795E28
BBBA8FCA
3D0B2977
3C1A148C
3CA6E2D8
BD0F47E7
3DB28D0D
BC8F25AD
3CEEE446
BC362CBF
BC8553D4
BC946F1C
3D1A91BC
3CC83C8C
BD248BFB
3CB14F99
BBFC2111
BD3479D6
BD708DB4
3D1CE330
3D2B3BED
BCF70414
BC03DFD9
3BB262C2
BB93BA18
BD3FF543
BD07271B
3A8C35BF
3CD08266
3AB914EB
3C6DA897
BCA1BF16
3D19D5C5
BCCD4024
BCFCA3BC
BCCBC274
BD31545F
3D0D1CEF
BD48BAAD
BD3C9DA4
3CE5D99E
BBE7F782
3C3988E2
BD152EC4
BCF4D25F
BCA08DB7
BD69869B
3C343B85
3D088B9F
BDC817EF
BDB67204
BDC902EF
BDA1E438
BD31FBEA
BBE435FF
BDBC3E4A
BC1B74A4
BD383957
3C83F759
BCC0AC6D
BCB769A5
3B64020B
3D5727DD
3D61C937
3D952994
3D3B024D
3CB28A96
3C330EB4
3BB167D9
BC4D2214
BC580F65
3CE1BD6D
BD150CA3
3CEDF40E
BB81A337
BCEFCE82
BC880CFE
3D44EF41
3D6A80EE
BDB61B53
3B4DB406
BCE7542E
3D317C90
3D4E9F28
BD4429B1
3B85775F
BC9E3AB5
3C537AD2
3B90C062
3D00F8DD
3CEE04A2
BD3C5C9F
BCDD136D
BC266E6C
3CC5ABF1
3C8B87CC
3C389BE3
3CF13546
3A4BC600
3C62BD19
3B669E35
BD1CF9DF
BD4A1B52
BD1716CD
BC9FCDBA
3CA716EA
3CC5741E
3C0963E2
3B3E07E0
3D2815C7
BCA9400E
3D320845
BD2A4696
BD2FB165
BD3F9413
BB5E94ED
BD2DF891
BCD25C56
3B4CF838
3C7E6B0E
3B3A2D91
BCA96255
BD4F447D
BD3AFA16
BD0C5B99
BD640233
BD617B5D
3C59A1D4
3A9D4746
BD06C132
BC5E15CA
3C3FB6E0
3C4E10E6
3CE9ED28
BD2BE381
3D2A6801
3D5FDC52
3D1F7C60
3CFCED05
BD13114D
BCD1CD74
3CD7164F
3BBB5AD9
BC1DB339
BD085DAE
3D573B5F
3D2B1442
3D09675F
BD55A07D
3C34B150
BC36DFD2
3D61FBBB
3D2F6A4B
3D457A64
BCD652EF
3CED82C9
3B0513A1
BD400FF4
3D1F2771
3C73049F
3CDEC981
BCF9AD78
BD3ABAC0
BCDFDD50
BD0DC1F5
BC18320C
3CFED1B8
BD37C9FC
3B6EDE43
BC7BA395
3D4D55FF
BC10182E
3C7E18E2
3D3B28DD
3BADF5A7
3D458D70
3D5EAF35
3D13057A
3D53E8D0
3BB9160B
3D1A8A1A
BAFF5071
BD8175B1
BD3D5B81
3D9A35F5
3CB7EE9E
BD6539D2
3AFEDE42
BD29F228
3CF7D97D
3C035319
3CA252B3
3D0F57EF
BD8D93EE
3BEF135E
BC0F6078
BC97803B
3D8C8E81
BC1D6EB2
BB4486AD
3D806A8A
BC97B28E
BD3C712C
3CD3CBD4
BC97626A
BAF55AA9
3D1CD022
3CFDAB09
3D1D7BD5
BCBB4826
BD1F4F45
3CBDDCB8
3CC48F86
3D8509D2
3C25910C
3D1C00BA
3D535F6C
3CBD90C3
BD40CE3A
BCFCF7F6
3CA370FF
BD2A6A5C
3D0B24BC
BBE863F6
BB305AB6
3C37FB4A
BD16535B
3CA3076D
3D84853D
3CA02A43
3C52C3FC
BCB62983
3D0506F2
3BFAE141
BCBD1D59
3D401EE2
BC4C4449
3D1F31FB
3CB6EDDC
BD3895D7
3D35F661
3D0442F9
BD32A787
BC12FF82
3BA01E87
3D930C5A
3D72F269
BBC8F8FA
3D260D32
3D2B5B07
3CCB4255
3D0D9DF3
BD51306F
BD272559
3D4978E6
3D72C8A0
BE1EA42C
BD01836E
BC2109F8
BCC424A1
BD16D62B
BD0F251F
3D061710
3D67DED7
3B9D29C7
BC7B0D94
BB01528C
BD0B886D
BCFB812C
3D06BBB6
3D3B6B1D
3D88FC2C
3C3E7BE3
BD492045
3CD9E728
BAD3FB80
3D83F0D8
3C871CBA
BD790897
3CA2AF4F
3DD81F8E
3DD9CD5B
3CFC0DE9
BD69AD6B
3D8BB269
3DBAACEC
3D527187
BC598AD8
BC42DDA7
3C9D4A73
BD053804
BC47B476
3CB79AF4
BD59AC85
3CF26EAF
BC9BAC23
3C04FBCD
3D391964
BBECBFA5
BD40CC35
BC99F37C
BC4138BC
BCDD9FB9
382B4894
BD1033B8
3D08F3FC
BC65029D
BD2149AC
BCC7ADF4
3CA2F583
BCE2C1E2
BA6FD85B
BC1F82A7
3C822B63
3C52D567
3D81EA2E
3C36E1A4
3D145D02
BD9BE050
BD46E239
3DAA0A41
3D7C8537
3D24AF63
BC8F9AA7
3D6043DA
3D4AA973
3D8409A7
BD6F6D26
3B5A06B4
3D6E62CC
3DD404BB
BCDABDBA
3D107780
3DBD61C3
3D3A4E71
3D384B60
BBE913A2
3D28ED50
3D962A93
BD1F1AE8
3CEAC4E4
3C108750
BCDB9F3E
BD44687B
3C8B15A9
3C37EECA
BD1F7B58
BC8A19B8
3D911B7B
BD767587
BD9C4571
BC42B171
3D03B344
3D4DA2E4
3C1FD7D9
BD8913DC
BD8431B9
BC32FA71
3D9E8378
BB0E120E
BD5D59CF
BDF858B5
BDCB54EC
BD5B6109
3D587BD3
3DC259DE
3BDBE3C0
BD098F8A
BDABC7B5
3D225118
3D554425
3D0B090E
3D78256E
3BF376EC
BCB2B40B
BD0DC702
3D15E0F8
3A9B313E
3B152C0B
3B0A615F
BD80B412
BD584EAA
3C655B03
BC0E0F22
BD8CEE23
BD1544AF
BD466339
3C5516C7
BCAE1F0A
3D06B208
3CE085F3
3C414D4B
BC317692
3D135DB9
3C93F166
3DAE5030
3CC395F6
BBC4CA88
3D838AF1
3C30F178
3D143222
3B71F342
3B6ACA57
3CADD1DD
BD5577EE
BD80BA5E
BDFBE8D4
BD80E52F
BB822832
BD9E61F8
BD92C038
BCB53B55
BCE67E86
BAF4AB11
3CAD279F
3D77AB3C
3DABFA4A
BCD0D806
BC7042D0
3D48C041
3C1688AE
BCEF14A6
BCB61D8C
3CF73740
3D1211E7
BCB102C2
BBF5942A
BC7E24C5
BC5C037A
BCBD6B49
3C67E108
BCE7ECE6
BBE036DE
BBD97B62
3CB42839
3A46422C
BD2DF94F
3C563509
3D302EBF
BCEE8B02
3D148FF6
3B5217A5
3D40B36A
BD0B022E
BD812761
3CD519E6
3B6DA1C9
3C73CA75
BB2476AB
BC541C34
BAD21744
3D7AEAC2
3DBB1ED2
BB7C61D2
BCF6E211
BBD41116
BC16044B
BD41B105
BCE5AAD3
BC5A4DD2
BDA20735
BD4180DF
BD99B019
3C794494
BC97FDD7
BDBB17BE
BD4A84CD
BD71D5A1
BCFDD64A
3B179F8A
3A3D8BED
BC9E3B57
BD15C8D2
BD119C56
BD610CB2
BC649663
3BE86F3B
3D53D83E
3D376031
BC8DE26A
BC72D23D
3B9BCCA7
BC793562
BD71F8E7
BD21153E
BD8FE744
BD7F3996
BC8ED73D
3D232396
BC581F50
BD0BF9DA
BC997219
3BCD8448
BCA6ABED
3D36EF55
3BC51839
BCDDCE69
BD4B7B6F
3CB84EC2
BD3E1ECE
3CA99B0E
3CE3E22D
3B9A3680
BC9967E4
3C96D524
3C9C4E7B
BCC206B3
3CC64E0F
3C779DAC
BD3F1674
3CBAD577
3D10B0F3
3B7ED7E0
3CD07642
BCF043F2
3D40A477
BC420530
BC9EC22D
3D3FB8B1
BD53F2BD
BCAD9416
BD78BE20
BD0ED4A8
3D1B06B4
BD1E485B
3CA955F9
BC3F106A
BCAF52A7
3D259666
3C467FB5
BB0AF5C0
BCF6B79D
BD8C2DFE
BC53DE83
BCB388A6
BDAAE7A1
BBC95336
3CBF44B3
BBB403E2
BC863842
BC5413BF
3CB78900
3D718876
BD447D18
BD0B7F4B
3CF4A4DE
3D5F9C72
BAEFC446
3D426F2C
3D44AB75
BC53114F
3D9BDF53
BD6E4047
BD4FF492
BA63A779
3C8571C9
3C2B6F7F
3B382F82
BC4C07A8
3C025FF8
3C7B0352
3CCFAA73
BD1B6D07
BC6096F1
3A81CACC
BCD35F21
3C9695C5
BC960926
3C747448
BD3C09FC
BBEDFFCE
3D61CD97
BD2BF778
BBFEC89B
3D34A391
3CC8E307
3D54F0C5
BD1E2DB9
BD824228
BD1F7B31
BD04AF6C
BC810365
3D053BDB
BD920061
BC81012C
3D00FCAC
3A21617E
BCF54C83
3BF635A2
BC3CF1F3
3C4CA7C0
3CD37064
BCF7BA27
BCEFA768
3CDFA0C0
3D01BB3B
3CC6926D
3CAA0839
BB269D32
3BAD037C
BD3569A2
BB726461
3CEF2B66
BCE1ECAF
BCE9C683
BAA3706D
3D0A4432
BCA94209
3C9C88FD
BD29CAD9
3D27E29A
BD6ED5D4
3B6462BE
3D042EEF
BD1BB6CA
BC915472
3CF530F9
3D292C11
BCE93B9D
3C3C1C31
BD0BD25B
3D1000BE
3C8C0A16
BD54B1C8
BD1FD002
3D48AF40
3B6F53F7
3CAF1A74
3D181379
3C8255FD
BCF93E73
3B5615BC
BD3A501D
BC11171E
BD501770
BD33F51D
BCAB8557
BC5766DB
BB2196F5
3CEA9B3F
3BDDEA9C
3B9ABED8
BC08A2C8
3C76E6B9
BD70238A
BA9D987A
3C86463E
BC66B54D
3CAE7074
BBD71B02
3D3873E9
3D43F136
BC96760C
BCEC5C60
BCFEA255
3D2E7D8B
BD5A5C63
BBE9FC08
3C9994B8
3C931897
BD1371F4
BCB115F5
BA98BF52
BD7AA7A2
3D22D19C
BC2352D5
3D552A0B
BD1797CB
3C551E2E
BD2AEAD6
3CB13DED
BB797D3A
BD0BAF78
BDB370EE
3CAC7F7B
BD3A4FBF
3C800259
BCFA0906
BD949933
BD55FA91
BD55DDEE
3CBE0731
3D33E273
BCA6B5BE
BD428A0B
BC96F8FA
BC82CA8B
3D3537EA
3CA2FA9B
BCE7E471
3D07ACF7
3D39987A
3BF8F765
BD7CA537
3C343FA8
BD090FE7
3D729966
BC1CC968
3D54E744
BD2EEB77
BD0E75E6
3C650EB5
BCC0B376
BD30940E
3CF5FE25
BC173926
3D4A6D36
3CE7CB29
BCA7328E
BD40B6B2
3B9B1AC6
3BD6C861
BCC1EEED
BCC7CC84
3D331CDD
BD46941C
BCA22A60
3D71DD3D
BCF1C45D
3BFC31B3
3D0C7535
3CB6EFAD
3C97EEFE
BD3D3524
BD260B0F
3D077D6B
3CAD5600
BCE9AB3B
BD537E7D
BC4D2B37
3D156CB4
3D05B155
BBB89C6B
3C3D7CEC
BCB83517
3C95544A
3CD88CE8
BD04F2E3
3CCC5A9B
3CB17BBE
BD393D8F
3C570912
BCE7D575
3CC97AC4
BD5EFF61
BD2E6711
BD822B8F
3ABC6F49
3D50F6C3
BD37317A
3A2FFAA2
3D27F417
BC37B844
3D4534B6
BD241F9A
3D7AC2EC
3DB660AB
3CAD27FC
BD2724CA
BCFBAB0A
BBE5BD4C
3D95CF1E
3B5D9B08
BD192524
3C141EBA
3D083672
BC9E9245
BC9ABFA1
BD59E7A9
BD21BDFF
39963115
3C985BE3
3CE1AD64
3D131197
BCB1D5B3
3CD6AAA7
BD1A6D39
3D31DDFD
3C9AAD30
3D299632
BC552C9A
3D0A5585
3C472930
BCC8E8FA
BCCF4AA4
3C8500A5
BB731490
3D0859A3
BD111B52
BCFF9324
BC58C185
BCAC04D8
3C3D9AFD
BD046A2C
3B427ADE
3D18E4DA
3B4B7118
3D326848
3D9DA75F
BD185A4D
BD79CE2F
3D28F1D1
BC210AFA
BD01C1D4
3C8141C9
BCC2AD40
BC48481C
3C7112C1
3C7C17AD
3C3DDBD0
3D6AD591
BD2C1679
3BE48E13
BC3DD6B2
BCD58ED8
3C7CFB9D
BD29BE13
3D2FE1DA
BBDC5CD6
BD269F55
BD3BFCCB
BCFAF5F1
BBBB3D4F
BCCA527A
BD2069CE
BC373029
BD0530A5
BD3838E2
3D1F83F1
BD331859
3BE471F1
BC531D46
3CCC6C97
BC762CAC
BD36152B
3BE95C14
3CC450A4
3C41787B
BCEA8FB7
3C33B90F
3C1F1E7E
3CE6A84B
BCF7182D
BCB5F56F
3CCFD53B
BC827A67
BD2D5805
3D15F239
BCF91A6A
BD469067
BC793A79
BC5C23A0
3D9236F2
3D0536F7
BC2E9A46
3D2B15CD
BCE12C60
3A555C12
3CC21603
BCC1C069
3D3978BC
BCC60CF2
BA0E2A64
BD102C23
3D5D3E9D
BD3F9396
3C9CD710
3C576821
BD7DA18D
BCFAC669
3CBE68FF
3C924AC9
BC693C7F
3C3C4F1D
3C3054D6
BD3686AC
3BE48110
3CD6C0FC
3D70B5C0
BCCD1227
3C8E42FB
3C00BFF4
3D100C26
3D744E95
3D12943D
BB4020A4
BCFC7183
BCC38D7C
BD0E3DBE
BCF8D75F
3D55F7D7
BCC500AE
3C395366
3CEF1F4C
3D36382F
BD074A48
BC170C1C
3D41A52F
BC75BD14
BD114110
3D28630B
3D06B3B5
BC7B7E98
BD079D1C
BD33DA6C
BCBCCBD0
BCB4BAE3
3CD6FC2E
BD496507
3CFD04F4
3CF887A3
3CDC2366
BD1B0D5E
BD364C1A
BB9A6B36
3BC1A2CA
BD166B8C
BD2BE9EF
BD1B2EF3
3CC76CD9
BD6FC009
BCDF97E1
BCB74A1F
3C95A22D
BD7A184E
392B409B
3CD639BF
3D84E223
3D55E8F3
BA7C72BB
BCA8EA3E
3D257DA9
3D1AE994
BD464D71
BCCF0C7C
3D618BE2
3C297CCB
3B427302
BCFA1262
BD15F033
3C613EC3
BD48D42C
BC97B59E
3CE3477C
BD0EB878
BD41E17C
BD159F71
3C8B3673
3D3D64AF
BCAB8D9B
3CC15AB5
3D57873F
3BA63126
BD4D939C
3CA5CDD7
BD1203DF
BCA3AB68
3AAE0933
BD8B1574
3D21A654
3C27B056
3BF69DCF
BCA2A798
BD39407A
BCD94B62
BD47E9F8
3CC65A0E
BC8C1183
3C970C7C
3C46C5C6
BCC9FD47
3C5B76AB
BD0BDCF9
BCAF7388
3CA43F3E
BCA1CC0E
BC9C1ADF
BD3405BD
3D2086E5
BB8C48F8
3D2302DC
BBBE7C4D
BC2A8D9E
BBC26719
3CD65843
BD3C8EF6
BD402ACC
BB71FC5C
3D27B0A6
3CB72203
3C360AB5
BCD658A9
BB36D81E
BCBFDD11
BCD0EEB0
BD6FEA61
BD693BDC
BD2043F4
BCF8B488
3C8D0EFD
BD0F1942
BD391A1D
3C1F4D2C
3C45B88E
3CFD877F
3CBA4EF4
3C9B51D6
3C515A43
3D17D993
BC5B1410
BB9F4370
3D0C5FBB
3D116750
3C6AC299
BD3FE598
BCC7BF58
BC930AD7
3D573A15
BC9425A7
BD3363B5
BC9370EE
BC9E3878
BD2E0998
BB35A685
3C679610
BD241BA0
BD3D4E9D
3C0371E8
3C992C2B
3CC0F79F
BD2EEA26
3D0E4B85
3D3F6373
BB8AC54F
3D51D86C
3C9BBD62
BCD174E2
3C770129
3D3D9721
BC235774
3D14B6EE
3D1F7E84
3C738ED1
3BE75591
3D441D3E
3CDE4515
3D086529
BBBF3308
3D2BC9A6
3C3177E9
3D1D0FD6
3D8A1DC8
BD3FBA61
BCF27F05
BD06DEF1
3D3D5168
BD2F3790
BBD4D13B
BD438C8E
BC9C9A57
BDCF88A0
BD8950DF
BCD91186
BC146757
3D767905
3DE29150
3D822065
3D5658BF
3D2E4207
3D214686
3C72D9B4
BDB1E206
BBBF56C5
BB3D2C75
BD16D945
BD1EB509
BD68C23D
BD373805
BC93823D
BC2342D5
BCBB0791
B96331E2
BC9EAAC2
3D1B3D80
BCBE27FD
BD4A1000
BD751FE6
3BF76A75
3D369F1C
BD03BCB4
BD616D4B
BC9F8F24
3C5CE76B
BCB1B251
3C40D0EE
3D7CF779
BCA7C0E6
39192138
3D5D76BD
BD6C1B4D
BD24937F
BCEE16ED
3D7E2CBC
3D2CE330
3CFCDEE7
3D061E56
BCB9CB4E
3CAD6565
BD32C06B
3CB43641
3C8F74FC
3B865CD6
BD2122D2
3D01B641
BBB2D87C
BC90F4B1
BD4619BF
3CE8C397
BCDD0941
BC86B0F3
BD4E5332
BD479E71
BA1ED90E
3950D6C7
3C2CE90A
3D283E71
BB7D6CE6
BBC8C093
BD8D9CFF
BD22C769
3DA73414
3CCD49C5
3CCEA2F8
BD13B17F
BD88A823
BD098035
BBE40058
3DB30DCA
3D0018FA
BD444531
BD6A22F9
BBFD3C78
3C37BA3E
3DBC5AAE
BD944ACE
BD305614
3DA2A608
3D906A0E
3C638E2F
BBCAA2AF
3AE85984
3CC1533C
3D6ADAA2
BC941AD5
3CB82292
3DDA9BA1
3DA7F309
3D90D664
3C8C8918
3DB59FB9
3E0CB5F9
3D69D6B7
3B1A1CD4
BCDD61ED
BC7660BB
BCD57B90
BDF48048
BD981CAA
BD37FE54
BCF51CB5
3D0FE498
3BE0B6C9
3D637CFC
3C91FA12
3C03C047
BD259408
BCAA556C
BC5FA4F1
BD239D8F
BCCADDE6
BD3E6676
BCCE02A0
BD2C25BE
3D2C6224
BC88FCBF
3CC825DD
BCA800D1
3C8B7751
BD336ECC
3D718A15
3C4E5C6D
BCB87497
3D2C78D5
3CA123C3
3D36200F
3D033A50
3DA79AA2
3C3D1853
3C95449D
3B97D7ED
BC097072
BDB68208
BD4CD6A0
3C56EBC2
BCA13E28
BCB978EA
3D0F683B
BD9A0FFA
BD306157
3CA28B89
3D8C7F90
3DCDC8F2
BD02ECCE
BCA17C6D
3D9F72F5
3D849B2D
BBD0DB68
BD9B659C
BD0022AF
3CC821E0
3C32401D
3D2D3ADB
3CFCC89F
3C7A3409
3C454997
3D420CBD
3CF7B27B
3C67AE50
BBFDA468
3CEB8F1A
3D1F7F03
BCADB52C
BBD73540
BA5BCA5F
3CF07CE7
BD22B55F
BCC620B1
3D0088A4
BB7E1744
BBFF04B6
BD38C0D1
3A113F69
BC641F8A
BC26EB88
BCF3F069
3C0DAE27
3D8D1FDA
BCD309C2
3CD85649
3D17DB9B
3D595E68
BCBF7E90
3BA6524A
3C289833
BD8873EA
3C826CBC
3D1FBDCB
BC5A8266
BCD20E3C
3CA69537
3D908E5A
3D59C760
BD0182A2
BD8EA30C
BC137812
3CA218BA
3D059B8F
3CDDF443
BD56A6EB
BCD45870
3A875A46
3BC50167
3CFB87C4
3D01230D
BD098DDE
BC5D1754
3CAA350E
3CA12963
3D2CF19A
BBE268D8
BD1A9A4F
3D1A1509
BD0CB68B
3D80A379
BC81A86D
BB5BBCC0
3CB4CE0C
BCED2BE8
BD973106
3D971595
3CE078F0
BB240C35
BC6D0B8F
BCEBA0E9
3BC43502
BBC59911
BC8B85AB
3D2731C5
BC744DB8
3D2DF787
3C3E0476
3BF788FC
3C73D7E4
3B173880
3B6B0219
3B696550
BC999700
BCD15CE7
3D4444C9
3D14BD9B
3D4C2DDD
3BF820D8
3C9562B2
3D432D2D
BCE6003F
BD36CD5F
3D3F0409
BCC3C2A0
BC7FB1C1
BCE53541
3D15AA43
BC0312E4
3D145D17
BCB97A13
BC9FA135
3D0F873A
3D2D9ECC
BCF3C341
3C0D4A64
BD42EB90
BD7925CA
3D1C62FB
BD4BFD8E
BB68F4DD
BBF55634
BBA022ED
3D0EB694
BD958658
BDB96E6C
3D553167
3DC8A7FE
BCAA382E
BD243AA9
BCB82DF7
BD0D1F53
3D263BDC
BC2C4442
3D2BA9BF
BD12939B
BC103CDB
BD1AB44A
3CB52657
BD6C1DD2
BD87BD9D
3C59FD61
3D6A8E48
BD33E116
3D1A3777
BC1E82A7
3C4A2A8F
BCCBA0DF
BD95E860
3D26767A
BD37F3ED
3BCF15BB
BC400792
BC122299
3CC89CAB
BD3E9C4F
3C10D53B
3D01695D
3D40E252
3CA3D791
3C638EB0
3CC01E8D
BB8852B1
BD34768C
BCAFB488
BD092FCC
3BAAA2BD
BC0A82FA
3CFA2D6A
3D02B44C
BB858508
3CB05D9E
BD42715E
BC6B58A3
BAD6706D
BCED1E9A
3CA1FD96
BD2FAEBF
BC2A80F2
3C3F4253
3D06B010
3D2E3B75
3C960BEC
3D40CBC0
BD20E0E7
3CFD5E23
3C7FF3D4
3BA5662D
3D10C574
BD38888C
3B4E9311
BCAB6F20
3D12EE7F
BD0817EF
3D2C315C
3C51A805
BD0C6362
3BFC25A2
3D40014B
3C2A6943
3CB97518
BC87AC3C
BD04898F
BD1483B9
3D114BDE
BC94B531
3D0EC705
BC88B00E
BC41902A
3CA24F12
BBCE8E8C
3B1A65D0
3D3CE8BA
3BD14896
BD29A806
3D3E5882
3CCCFC76
BCD7B22A
BC97DCAD
3B64246F
BD17109B
BCF6A3C9
3CEA8F72
3D40AC95
BCA76A4C
BCFC8A3A
3D162E15
BD36F6B3
BAFBCF2A
3D0A1267
BD36F958
3D61129D
3B441629
BA4B98DD
3C9F9F2C
3D1F7AF9
3BFED697
BB0F96E5
3C575454
BCAA5449
3CD4D8E4
BD5D946C
BD10D784
BC51B2BA
BA5E1463
3B2954FD
BC086505
3D4A0525
BC67D082
BCC8E8D2
3BD030C4
BCF59B0D
BCEA0431
3D22F95C
3D1CD00F
3B829C49
3C946E52
3D4C4274
3D33A671
BD4E0709
3C9CCB57
3CDD2BF5
3D4819DE
BBDC973F
BD0657CC
3CDFE6BE
3D4254FB
3BB2E7C7
3D3F32BB
38FA956B
3AE886B2
BB89203A
3C6D51AA
BCEE17FC
3C86F224
3CF8A0C3
BD398868
BD103B4C
BCB0A0FF
3B0E602E
BD221711
BAD8738F
BC627216
3CCB00D3
3D2E227A
BD04BE7D
3D25F4BE
BD0491F0
3CCFA01D
3C4C1744
3C9C294F
3D020B26
3D0369E5
BD312DB2
3D1AB1D7
BCD2A90A
3D3E096B
3CC25A12
BCC94C68
3C2A29DC
BD33043B
3D2CA3EE
BCBC8B89
BC651F36
BD2FAD6A
3D041BCD
BC754657
BD3F0AEA
BC2B7470
3C40A59C
BD097A3E
BCADDAC0
3B8BC60A
BCA3DFB6
3B34368F
BCA0F919
BCF5C086
BD43EE1E
BCF703D4
3D18B9BD
3C9C1382
3D08AC83
BD34743A
BCD04D23
3CA118DB
3D08CC4E
BD1972F4
BD29FDF8
BCACB4CD
BC87668C
3D0231D4
BD1EAC0D
3C03F673
BD2C564F
BCA6E38B
3CE4136E
BCFE4232
3C66A10E
BD28A62C
BCBFA6EB
BCAFE940
BCC23AD8
BD436F26
BD256FC0
BB1FA1EE
3B449FF6
3C505AEF
BC45CE96
3C3F4ED6
3C4541A3
BD1FF3ED
BCDCFAFF
BB4339CC
BCB1BF55
BD3B5FE4
3D0F3923
3CB3CDBC
3C81F78E
3CF00276
3C0C42D1
BD222C33
3D00B65B
3C560F81
3D20F10A
BD351074
BD2435DF
BBAE2AD6
BD42116E
3D3FA36C
BC0191FC
3BC9DBF0
BB03FD14
3CB68E57
BCA2B7AE
3CE0AABF
BC380D38
3B4FCF0B
3BB22461
BD3B69FB
3D0966CE
3CF71C49
3D4BA578
BC4D7D9D
3B9482A3
3C033DDE
BC09A74E
BCC22C89
3D2D053B
3D320AB6
3BBEA28D
3C93F57F
3CB74488
BD249331
3CE6CCD7
BC005E3D
3D341086
3BC4CA19
BC3BD110
3D14E91E
BC8301E6
3BEABAF5
3CFBBCCE
BC5298BE
BD3E0488
BC5E5185
3C9EE045
3CF1EDC7
BD19C3DD
B94C6393
3D3BD828
BBBB9243
BD145067
BD1127E8
BCFAD59C
3C6986F4
BC74E7CE
BC8D5B01
3CD16847
3D2FC9B6
BD49063E
BCCCF616
3D18B9E5
BC907BFF
BD0D03EC
BCECA786
3D0F0609
3D095782
BD0859A8
BD145E88
3CDE6D76
3B2BF970
3C6FC679
3D150B8E
3D276988
3C6ECA18
BD12842E
3D0D3497
3CE30C64
3C123577
3C493638
3CB78D97
3B4EB195
3C6EEFF0
3C80F35F
BCE66986
BCCB8EC5
3D449417
BC58CDD9
BD359E93
BCC58CAD
3D12318F
BD19E75E
BB8C5502
3CE94D9B
3C42DB26
BC9E9FDC
BCBEC01E
BCB575F2
BCA3E969
3C91F477
3C83A22B
BD2E39E6
BC7E6A29
BCC406C9
BB1E739E
BCF4C068
BD1B2F29
BD04C520
BB6F78F5
BD30D10B
BBFDE141
3C92AC08
BC2096A7
3C823F92
BB5E1D88
BB7E4A83
BCA4AA78
3D3D1F6C
BAE11E6E
BCFC4E47
BC0198A0
BC641849
BCF348E4
3D41765E
3CA3480E
3CE083DA
BC9B95BC
BCFA53C4
BB480974
BC676400
3BD6E270
3D051C87
BD1E47C7
3D1AB581
3D14CDA9
3D496489
3D455C1D
3C14859F
BCBEB267
BD42C1B8
BCF5611D
3D348A89
3D0EF7D8
3C928700
3C975332
BCCD8397
3D2195FB
3D659AEF
3D618398
3CC90DE9
BC96AD30
BD21FCEA
3C2C5B7C
BC1C701D
BBE7A324
3BB0BADC
3BE1D01C
BCED5C4D
BD093E91
BC26BDA4
BC9E709F
BD058C4C
3D442F14
3D368518
3CF4531D
BC0D48F9
BC77AFE7
BCFDB0E4
3D0AB587
BD18A68D
BD2ED365
3C171838
3D47DCD2
BD1C468A
BBC2AF19
3D3C27C4
3C761317
BD00826C
3D22F7BA
3D019090
BD296757
3D4B2583
3D1D4DB4
3B4398C5
3CA0FD10
3CE4A231
BC9FF48A
BC7E2040
BC8772FE
3CE0109D
BC4D757C
3D3AAB79
BC376EBF
3CE6A40C
BD49ECF5
BCF2E50A
BD051840
3D7147BA
3D42BC5E
3D07F115
BC266972
BBBBB5B0
BD33685A
3CE79D8A
3B00CDE5
3D0C34B5
3B8A00F1
BCB57F4D
3D599642
BD20E820
BD1468E5
BD8C22BD
BB9067CE
3CC0A36B
3C6C9FF4
BD85CEC2
3CB4A97D
3DA3C7E7
3D0AA0FE
BC9C46C8
BD067A17
3C862D9B
BD109F5B
BC64FBBB
3D83DCD8
BD77DA4A
BD1FE6BE
BD4E06A6
3C2D92C2
BC95854A
3B846D7C
BD1C05DD
3CC23349
3D2EC308
BD23A2FA
3CB148E1
BCC23EDB
BCD20F3E
3CAC1AF8
3CC8D935
BCD215F1
3D081E94
3D66FCED
BD8E08EA
3C34208E
3CCF1104
BD2F6349
3D2A84E3
3CB47924
3C3C6555
BC352B21
3CF3F198
3CEECCE5
3D4ED5CA
3C940035
BCA960B4
BCFCC09C
3CE7E38F
BD10489D
BD4C9E67
BD5C05A6
3CB3C3E1
BD3A1D4D
BD17CA6E
3CA87E0D
BCF44C6B
3CD36940
BD403A8E
3CA88BDE
3D63323E
BC6A147B
3CAE6BB7
BCD9039A
3D4B454D
3D948DE8
BD1532AF
BCA9269E
BD845C2C
BB0CDCCF
3DC2260F
3CDFD450
BD82AA64
3CA2FF42
3D67D0BA
3CD7CC9C
BC5DFE8C
3CA4C8AF
3E0C6BE0
3D5470B1
3BC61ACE
3C99E9B6
3D957D0A
3DB077C7
3D145355
BD77FCB8
3C3504A3
3D17E2F5
3D29631A
3DBFBD7F
3CF9B826
3C0F3560
BD04FF7B
3D23AC81
3DB81F6C
3D2830D1
BCFF27B2
39F9B690
3B4063E2
3CCDD060
3D733FDB
BCE4A6F4
BD1A5916
3D29F4A8
3C7D7226
3CD691E0
BBB19744
BC917711
3D2F3929
BC428DE3
BDA6E003
BD8295A7
3D49BF22
BCD58D01
3CC6A7D9
3C71204E
3CA92689
BD2A9DEF
B81E6B57
3D2F3F9D
3D372558
BD97AA38
BC5F6C57
BD45F775
BAA11FAA
3C6A3E75
3903FED6
BD7283B6
3C5A27C3
3D87B382
3D891BB3
BDBB33B5
3C03AA63
3ADEDAFC
3D783198
BC938D7E
BCAF1BD4
BCC095ED
BCB0D956
BC3F48F8
3B36ABE0
3CAA222E
3BD9AC2F
BD45043E
3B98D622
3D71EDBB
BC081EE2
3C4B53ED
BCF681F5
3DC88D9E
3D255310
3CA9B911
BCD90AC6
3D148FC9
3DE68037
BDAA8185
BCAF37E8
3D3483DE
3DD121DD
3C1EB34B
BD06D744
3C604B22
3D86CD7A
3D69E2E4
3BDFA5AE
BD4C0804
BC68C179
BD8707E9
BD5C69E2
3D8B46D0
3D36A25A
BD85C1A1
BD839A15
BDD8B261
BDF708C5
BDFBBD09
3C705FA2
BD4E4C0E
BD96D6C7
BD08C6F1
BDBB46BD
BD2A3EB9
BD1B6966
3C8804EB
3E1489EA
3D3E710A
3D84C644
BCEB4E81
BCA3EEE1
3B1A2819
BC9AE761
3BA7D12C
BB23A6CD
3C0FC352
BCC777F6
BCA12215
BD749354
3CCAAFBD
3C9831EB
BC9B500C
3D568DEC
3C14ADF1
3C890C73
BCBB0B65
BCC75E5D
3D8CAF3C
3D255CE8
BC8A6E65
BD6A5683
BD3F88C8
BC5E35C8
3BA5DA12
BCDD5099
3CEB9AAC
3CF2DE47
BA007F34
BD38D791
3CBCA654
3C3B0EF1
BD3CC578
BCDAD7AA
BD1B33A9
3CBDDF6A
BCC146A8
BDAA28FD
3BE0351C
BD893CDD
BC06003D
BD447BE3
3C7251AD
3CD6C15E
3C0BC0A8
BD929EFC
BDB0436F
BD18FFC2
3D3EEA20
3D9C9884
3C36E1AF
3C204690
BBE9B8A3
3CAEF092
3CBB3C7C
3B28E6C2
3CA72C2B
3D0C821C
3C1D5DAE
3D00B07D
3C5D2EA0
BC1C866E
3D2EFC43
3C637D47
BBDDDC99
3C8DADC1
BD1D7886
BC0B9859
3B1F17FB
BB3A43FD
BD18B748
3B6BF8E7
BB89DA41
3C80DCAE
BC291918
BC178AEA
3CCCCFAA
3C8A3B2F
BC8A2B1B
3B94003F
3C5DCE48
BA5CD9E8
BAD8EBB2
3D5C5BAA
BD59FFC3
3D1AEE5D
BD2F5694
BD667CE1
BD3DE6C4
BD197546
3B2E15EF
BCE3EC93
BCC7ACF1
3D69AA46
BC6260B6
BD6D15DD
BD91CB1F
BC56FE4A
3D98AC53
BB955D76
3C44F634
BC890F01
BC6D3122
3BCF63D1
BD59A588
3D1EF68E
3D699234
3CE84017
BD64FD61
3CC1E3CE
3B47C777
3D5629F5
BC4D9737
3CA4D811
BD75C02D
BCCD6CA1
BD0091CA
BD47344B
3D38EA47
BC677F30
BD4808D1
BC7FCBC0
BCD42FB6
3D23C274
3D95923E
BC2E8667
BB0B218C
BB9F42DB
3CE07A02
3D476D91
3D15B993
3D05E158
3CCDAE1C
BD0FF25E
3CB1DB16
BCB4705D
3B5A85DF
3D40BF53
3B5A7144
3D48C23F
3C271DBE
3CF9FD0F
BCF9A82D
BC8D5C64
BC170698
3CBB8F24
3C005467
3C729322
3B1B24F1
BD41AE81
BC09F993
3D4456C5
BD149B04
3B45283C
3CC883E5
3BD2D92D
BC8E3E17
3D06647A
BC09E86A
BC284536
BCCCF2FF
3D243F8F
BD40771D
BB852892
BC9D07C3
BD3BC636
3CE078AE
BCA26FBC
3C322FC1
3B3FB316
BD0B8C73
BCBDF960
3CB5394A
3D9D0B97
3D81B8C3
3CA2C223
3CE84C59
BCA8E9A8
3CF6D825
3B5D9ECB
3C90634B
BD486C9C
BC09A966
3C829DF8
3D3F5D11
BB992813
3930F037
3C6BC91A
3DA741D3
BD5FBE69
BCAD1DCB
3D85435E
3CFD782D
BC8E3599
3D2E817B
39A36F56
3C3B4B9A
3D209B7D
BD5753CC
3D0E5FC5
3D5E7496
3BE98041
3D35BE65
BD235586
BC23F877
BD1ED9B6
BBC993CD
BD1ED78F
3BF744ED
BCD61F6E
BD1525DD
BC9C6104
3C44CD98
3CC51776
3CD1E19F
BB42A4EB
BCBC888F
3D47262A
BD4FF981
3C658C38
BCBE9D9D
3BAA2C8E
3CFBB761
BD207DC4
3CCAF3F6
BCB99F4B
BC77BD74
3CC7E72F
3D33C73C
3C659644
3C809118
BBC39A00
3DA1DECF
3D4764D1
BD758943
3D2565F4
BADD2EEB
3CD52693
BD18E775
BD4E29F2
BD0C60F2
3BC7BA10
3CE5D8A1
BBBAD118
BD011BAE
BAF15BD0
3D1435F7
3C39A6E6
BCA9C644
BC7CC9FE
BD30F084
3D21BB35
3D039CE0
BCEED27A
BC3A1787
BCE63715
BBC0EC37
BD7688CD
BC7DF708
3CCBE0CD
BD58CC8E
BC19DDD1
3CDA7AC1
BC2F6FFD
3C757EEA
BC001221
3CE5EB55
3BA4293A
BC62D058
3BBF05FB
BD4305A1
3CDFA798
BD4ADB51
BD0C4BFD
3C502760
BD653490
BDC7CBF6
BCE03015
3CBCF43A
3DB3DF5E
BD8E4858
BD29486A
BCD1CEEB
3D5B8615
BC73BC3C
3D3922C3
BBE0AB6C
BD0A809D
BB832C23
3D4214A3
BC0F10A5
BD7006AB
BD435B85
3C901D80
3D534CD6
3CFD9180
3D8C4E17
3D0B4BA3
3B55A3C8
BCFB2C9A
BC8BCFAB
3D3D45AE
3DE393DB
3BAD82FC
BD276EDE
3AA32C5C
3CC4587E
3D3E4284
3C17FD60
3C3E6C4A
3CC6959D
3C3C5BE0
3D2D5439
BC2DCF95
BD06CE4A
BC47F1FC
BBBE6DAB
BC341B1D
3CB80864
BD42B9AD
3CC2566D
BABBA229
BB574185
3D0B1798
BD26DD28
BCCCA813
3B7F1507
3B69CA48
BCC1487A
3B85BEA7
BCCCCA5F
BD19B969
3CEEFF3B
BAED500C
BC13EB1E
BD19B39E
BD015F25
3A8A9CF7
3D5AF53E
BCAFD527
3B0F63E8
BD1FFC99
3C2B953F
BC879FBE
3B376473
BD426110
BC6181AA
BCF7ADB0
BCA230E7
BD3FDD73
BD9E5DB1
3C3DC86E
3D64C5C9
3D75E1BB
3D9EE99D
BDCC0563
3CB0F49F
3D2D3147
3D3E65EC
3D55AD02
3B6DC944
3D2CD1D5
BD647111
BD64B233
3D3E75A5
BDA127F8
3BC135FB
3BA9677B
3D493098
BC323ADA
BD886C5C
BD0415F2
3BFC8F6F
3C84E05E
3D24A0B2
3D46444B
3DC339A4
3D5141B9
BDB78A53
BD88E076
BD2E6230
BD2C794A
BD0803C5
BCCB4447
3CE4E76F
BD8981F3
3D46F17E
3D9FA71D
BCC5BBD4
3C75248E
3C649A26
3DBDEE8A
3D4AC068
3CC849B1
3D526B0B
BD9B70B4
BD740D80
3B17C077
BD3500E9
3CACD139
BC967FA7
BCB0329C
BC0F3B2E
BCAC4532
3CB5645B
3D150923
3D691638
BC99C7B6
BC638CEE
BC6C8C22
3C891811
BC4E503E
3D184AD9
B993231C
3CCD060D
3CE38B23
3C5BD348
BC6C412C
BD026121
BCEDD91C
3D339D7D
3DA6D2C8
3D36ECA9
BA77B249
3D2CAE6B
3CC9BAF8
3C089C5B
BAB60F2F
BCD23515
BCD0E12F
3D0513D9
3D065C56
3CDB89FA
3D50AEFD
3BA75F75
3D0F52D3
3CD0E8B8
3CB75FE9
BCE97D75
3BA68DD4
BADA2CA6
BCDDFBA5
BB5A00EA
3C0434E0
BD08175A
3DD47083
3C83ACE3
BCDA5902
BD602C25
3B0C8BE2
BC77D967
BCA15B7C
3D073D9D
3D3AB2D0
3D3227E7
3C7AA694
BD34C792
3AE1A55A
3BCFF4E6
3CD7A3E4
3D363A9E
3CFD8AA3
BCB0F8C5
3D4931B6
BC7A4146
BD46E56C
3B96B6B9
3CA83674
3CA55DCA
3B00E386
3CFC8AA0
BC88AAC3
3CB339C9
3D3AC97B
3C22B9D0
3AB0C494
3D0B86D3
3CC12391
BD75A09E
BD4544F5
BCAE5AEF
BC814AA4
BD03133C
BD4D649B
3D8139A9
BB41D76C
3923D2E2
BC754A70
3CC8C9EC
3D012791
3C7EBE42
BAE84ECC
3D44CFEF
3D91CD97
3C2E53C0
3B385419
BD7278DE
BCF9A08E
BC66C37A
3C30AF61
BC348C21
BCEB6ECF
3B2F2BC6
BD5B7CB2
3CD8D045
3D1F1D27
BD579E2C
BCAFAF97
BCDF4124
BCBA1CB4
3D2650CF
3D5C9284
3BB9A708
3D29A0CD
3B835500
3D80E2B7
3D942C2B
3CF6FFC1
3D4D3837
BC989655
3CE172E6
BBAD1E7A
BCDF31DC
3C97778C
3D689A16
3CA67724
3D473ACC
3CC578C4
3CF789D2
3D115799
BC867582
3C7F9E85
BCAF98D0
3B835CA8
3D154297
BC2FAE05
3C3A0A05
3CB346E2
BC2D67AC
BC82EDCC
3CFD9BC8
BAA4AD55
BC335F58
BD0FDC52
3D4BBA57
3CC29926
3C93AEE5
BCF392DC
BD08AC65
3C79FEF4
3D1C3129
BD2068C6
BC88E50C
BC9DDAC4
3B9DAE3E
3BF44AEF
3CB2D145
3CB4A051
3C8FBF83
BD2B6946
3D98D873
3D705CA3
BBFB1A3C
BCF01973
3D529570
3D85116A
BD542810
BCDB22BE
BBC38D1F
3D8634F5
3D092B66
BCEB4D86
3CB8F6B4
BD03CE08
3D084FB8
BCB47719
BD6C935E
BBE421E9
BC68666E
BC250FC4
BD033AB2
BCB50B3A
3CE54A68
3D93C541
3D3982D3
3D2A157C
3B217072
BCA2BDD6
BD679893
3B900B94
BD6296BF
BD074E5E
3B9CC513
3CF19FEA
BD1F0D9D
3C6C97F7
3D447CA1
3D2BF31F
BD450140
BD273087
BC20B37D
3D1F661C
BD220335
BC39473F
BBBEF508
BD3ED8A8
3CEB3156
BD3B827F
3C429E44
BCEF3DDF
3D032558
BD27689C
BD30E186
BD2E7A79
3D3D979D
BC6B1696
BCFF69E8
BCF0FBEB
BD37D4F4
BD4ABBD0
BC5AA960
BCF853E5
BC9A477B
3B377EFB
BD3DC060
3CED545D
BD1EBD14
3C8C0413
BD03D53E
BC809A7A
3D247081
3C853449
3C83D02C
BD086C2B
3D33A899
BD4D4FAB
3C348E49
3C269ED4
3D4747FB
3B7C8F5E
3CAACCA2
3D196563
3CB738FC
3CA0E29F
3D1BE1E1
3C4613C1
BD0BE314
3A96728F
BB97FD16
3D0F634C
3D025CAE
3C8E4791
BD4F16B2
3B8B4329
3B952B8E
3D27591C
3D10F229
3D11DD1D
3D28D533
BD279286
3C92549F
BD06319D
3BE13E6E
BCEEA284
BB585672
3CAE460E
3D1CF47D
BD18C817
BD4BD2CC
BD413EF9
3CA00A42
3D0745AE
BCBB3C12
BCB28093
BD1295A9
3CD142DC
BC73488A
3D28E185
BD40F37F
3A4E1B45
BD403374
BCABB648
3CEFC282
3D2B73E9
BA710218
B99E3922
3CFD9D5E
BCB26E2A
BD3C50C8
BD274ABF
BCD08631
BC8E6678
BCCEBA12
3D011F12
BCE4E2A0
3CA62096
BD46E903
3BA380FD
3D39A490
BC52DA41
3C426A61
3C35808A
BC10B3BF
3CDCB4C5
3D289673
BCAFB274
BCB45A09
3CB356BC
BB1072C3
BCF506B6
3D0F3E73
3C2E05B6
BC207B53
3C483402
3D366044
3CEA7118
3D21E328
BC8199C6
3D2A5EF6
BB09260D
BCB744D6
3C9F2679
BD115108
BCB07E74
3C99A434
3D0A9053
3D2DD08F
BD0A7411
BC55A324
BC44D42E
3B3D9AF4
3BF17141
BCCBA4B7
BB50C008
3CC7E659
BC971F30
3D07DAD3
3BC58F75
BD43B301
3C52E4DD
BD1F85B2
BCB8E253
3D00B185
3D34C82A
3C078DDF
3CE19215
BD296E37
3D255DD8
BC0658D1
3C454D38
BD15580B
3BE604F7
3D2BB820
3D3FA482
3D217595
BD437A5B
BC322D9D
BB290726
BC85194F
BC839DB8
BD08D6D3
BD5D5903
BD4E1BB4
BD07056F
3D173090
3A31501D
3CDCE283
BD45058B
3D196462
3D414DBC
BB99062F
39DD1CCE
3D2AC57A
3B58499D
3D205362
BD3EA4BA
BCCACBBF
3AFD6124
BD4481ED
3D46AEBA
BD359CCD
3B43E3FA
BD1DCC68
3B71DFEC
3D4C1B3F
BC70599F
BD3E5FC3
3C40FFD1
BC5DDAF9
3B75E709
BD599A59
3C800CD5
3D413199
BCB1C08F
3CE6F032
BC83106F
3D18728C
3CA8BF8D
BC36D3EB
3D11E49F
BC786B80
BD3FBDE4
3D284DF7
BD4566D6
3B5B6FF8
BD1915B9
BD2199EF
BBE2CB5E
3D0A8631
BC6680E0
BD1CDBAA
BC0D5333
3C252C8A
BC4EB711
BCEA21C3
3C1F8500
3C893C5B
3CA37C45
3D1711A4
BD315FB1
3C4A847E
3CEB5DC2
3D2AD22E
BC81EB8C
BB811818
BB97B3D9
BD4FE6EA
BD093601
BC90303A
BCB864BA
BCB4D3BD
BC7D4301
BC875624
BCDAF5DD
3D0CF2FA
3C67207C
BD28A0B9
BD307642
3CF2A4EC
3D15AC37
3CBD0F46
3D25CDA9
3CDAD0E5
3BA81519
3C87F5FF
3D0251B3
BD36A03E
BCBA1DCB
3C4D5131
BCBFB2E9
3D36B226
BB58682A
3D38597A
3D2A01C5
BC8C838E
BCE768F0
3D18355C
BCBEC0EA
3CC38612
3CCC3C97
BCD0A4C4
3D1238E0
BC9E9946
BCF4C826
3C86B7A1
3CFEA8E5
3C0E7507
3CBFEF42
3C920A35
BCCE4652
BD05087B
BCF8671E
3D0918FC
3CE3E3A1
3C8ADA40
3B3F0199
3C890A37
3C602880
BCCF7A4D
BB22B8C9
BC98AA39
BC58B65F
BD2A1982
BD0DC339
BD065D51
BC93F2F8
3C78E626
3D14DC46
BCF24A2A
3B5F8C7F
BD402BE3
3C390EC4
3D23BA47
3CE67695
BCAA5BCC
BD1F5DE1
BD2A5B1A
3BB8D817
BC708D18
3D02DE1D
3C80C4A9
3D0214F2
BD16DE74
3B0A56D9
BCEA74D3
3CA31942
BC790DDD
3C120A06
BD0E52DD
3CEB99F9
3B7DDDBE
3CF07B8F
BC28167D
3D161A33
BA81B580
BCBA6364
3D2DC56B
BD1ED79F
BB8C51F1
BCE4D704
3CE060E6
BB980BEA
BD50DC4E
3C2CC72A
3D21B7BA
3D211619
3D337FA7
BCD65998
BC165D48
BCC520CA
3D326114
3C1DEACE
3D0C03C1
3D43E923
BC290B08
3C519FB5
3CC713BC
BCEA58E0
3C26A2EC
BA658E00
BD236F8E
3CF245C6
3C3F4700
3CB3F40E
3CA82C12
BCFDCB09
BBD0D898
3D322D97
BD007B6A
BCBB4C60
BCD1D2DA
3CC75E1C
BCA8AE09
3D361C4F
3A0D39E6
3CC1BCBF
3BCDDE10
39789A14
3BB91C11
BD1E5A9D
BB4539FA
BD4EFE6B
BA6F881C
BBFBC1B9
BD45E79A
3CB85577
BD4385E6
3C91CDD0
3C8FB548
3D0C3636
3C85FAEF
BD4BBD49
3CDEF092
3CFC4DF1
BC4AA975
3CCE9592
BD2864DE
3D15D564
3CB8C9F2
3D2EB47A
3CC5F08B
3C6713E3
BCDF1FA6
BA15C869
BD0DBFE1
3BBA8E16
BC9E8189
BB944262
3C890E27
3D371491
3C0ABED2
BD4F2E33
3CD12A44
BCB400F6
3C611D0C
BC802153
BD430C35
BD37C1F3
BC2A0636
BD2E7AE5
3C8BDFAE
BCE7A389
BD20ED58
BC2929D4
3D1A26CF
BD02F250
3CE86E8A
3CED9ED2
BD3533D5
3D3EF964
3C86F470
BAD1972B
BCAE9A0A
3CDCCE3D
3BF585E3
BC35261A
3D04631F
BD1C5BFC
BC37CADB
BC052920
BB7E1309
3C0AD87D
3B3CF673
3B08F5D3
BC9C9496
BAB6F470
3D4B86F7
BB3D6A9D
BD39BC46
3B8B1591
BD34F40A
BCDA9485
BCFE8721
3C384008
BD05B8F3
BD592FA8
3C130F0E
3D20D440
BC168FD9
BBC209A4
BBF0981B
3D13B965
BC2CC3EA
BD1FFC1C
BAB4B5B7
3B706490
3B7EF2A2
BD16C73C
3D18F5EE
BD25F9FC
3CF51D22
BD231CEE
3A85499A
BCFD1CF5
3C5519CA
BD04C984
3D3A1A03
3D5870E4
3D005BEF
3C6F1007
3D43ED01
3D011D0A
3D1C264E
3D38E81E
3D089E7D
3D44D0CE
3CA01578
3D0C8433
3C25488C
3B085998
3D38DD73
BCEF37E2
3D4967DE
BC89597C
BD37E899
BCC2A775
3C62FB53
BD2AB516
BCC37357
38CFAEB8
BCAAA482
BC030E23
3CDBFF14
BD3E1563
3C91B508
3D00C27D
3C6EE1D2
BD350307
BBD83CF8
BC8F3653
3D117CB3
3D09343A
3B8BEAF2
BD07FCD4
BC58F2B2
BD86E552
BD8F142E
BCC9ED3E
BBBBB415
3B55022C
3C1A767E
BD344106
BC74CAF7
BD16C10D
3CD55C0F
BBDAACF2
3AC3869D
3BE4CB5A
3BB80456
390513E5
BA0F052B
3B30B840
BCA85C98
3C521CA0
BCB1F8CB
BBD2D328
3B596E07
3D7AD4B2
BC2F1662
3D326C3B
BC58CA55
BBA428DB
3A3510C2
3C465DA6
3BD43507
BD72685A
3C489C9D
3CD62A82
3BD3C076
BCBAB45A
B92F76F6
3C9C785B
3D578194
3CDAAD07
BBA5497C
3D01685A
3D392B3E
3C831B17
BD1C465C
BCB7F12A
BCD90374
BD74F929
3CDA22BA
BD2583B3
BC46E268
3BA0B53C
3D657203
BD0FF0D8
3D627BD5
3D360065
BCB3A14B
3BFC1CAC
3B0E06CC
3AE92399
3B6A80DA
3D3EC54E
3C576C48
BCD8B5CA
BD27A3EB
BBAC6A74
3CA0CE95
BCAD05BB
BD54FCB1
3D33B212
BCD81397
3D8908F7
3D37A0D8
3D0BA27C
BD4C5ED6
3BF84525
3BE66D85
3CD370F1
3C1370ED
BCD3A59B
BC6CD972
BD089949
BCF2D0A2
BB707FF0
3CF7E6CE
3CA72B7A
3D094A35
BB65E05D
BBBD450D
3C5DD0DB
3D65C2D5
3CE62D84
3B992D48
3B7D1978
BD036670
BC2C684A
BD2FEF75
BD2045C4
BD2E5C30
3BC40819
3CE680CB
3C2B6EF3
3D60308C
3D4C4C18
BD498347
3D49A115
3D2C7BB1
3D26810F
3D4C1440
BD0F158B
3BEC950E
BBE32E74
3C9E1BB0
BC3E1FD3
BAF5D020
BD237749
BC06BB08
3D1287D8
3BAAED44
BCF26AF6
3C9AFD7B
BCA2C88C
3BEE2C6F
BD585C94
3CFC28FD
3D544244
BCABABAA
BD87C037
BB65653D
3AE9DC70
3A04BAB6
3D3919E9
3D4D24E8
3CB0B6FC
3D38AFD4
3CF06EBA
3D1D4E4E
3C12063E
3BC5929F
3C97FBD3
BD5E9975
BB09E7F1
3D69C33D
3D2C187D
3D9AF496
BCEAE8C4
BBFADEE4
3C7CC6BE
BCC07563
3CF47F35
BD084FF3
BD015081
BD79E9E9
3D001D16
3CC50370
3C39A7C3
3C4836D9
BB9B1731
3C86E055
3CFE2246
3C24EE5E
BD27F8B2
BD4B7D53
3D082898
BD4A6766
3B9E08D6
BD493DF0
BD210F3F
BCA7E9B5
BB987DA0
BB33CF24
3D345606
3D3B974A
3D23C8A9
BD39A09E
3D264671
BD1681C9
BD4B2E79
BB72DBFB
3C937AEF
BD2BA57C
BC5AB98F
3D2AAA15
3D26B6A9
3CE1C5F6
3ACFDB84
BBF6E657
BD942D70
3CA184F2
3CBF8AE1
3D0D96EE
3C534E8D
BB9423BC
BCC45F06
3B827AAD
3A87C992
BC83F650
3CAECA46
BCFA9AA9
3D79399D
3D2D4EBA
3BCD7659
BD88F4E0
BCADF254
3C215E5E
BD15AEA8
BD4909F7
3A3434FD
3CBEAEA4
BCDBC30B
3C985BC3
3D04A2F7
3D222B36
BC97CFC3
BC0501AC
BCABE485
3CF2A9E2
BAD85B77
BD44201E
3D31B08E
3D268259
BC4E767B
BCFA4061
BD512D49
3CF4B0AB
BD0F7387
BD6BAB99
BD76E373
B983BC55
3D07A38A
3C5ABCEF
3D08E81F
BCAF0196
BD0977DF
3C81E412
BBDFF6A8
BB9EB8B0
3BFDD494
BCECC0E9
BC3DF4F4
BD4AF862
BD477B30
BCD15618
BCB753DA
3D2107C9
BD1318F2
3D09087A
3CA596FC
3D1E62E7
BC2CC5CC
3B35B020
BC0CDE47
BD3ACBBE
BBD635D8
3B6C6026
BBA538E8
3C4E5E5E
3C286ED4
BC3A0F2C
3CCD09ED
3B06976E
BD1384B4
BD4299D7
3C0F52F1
3BBCAA90
3D321703
3D2EFA8E
3C453068
3CA72A17
BC70A12B
BD0588B0
BD5A9095
BCCEB4C2
BC852EC8
3BBCA2CF
3D42D94E
B9CE324C
3C267E52
3D2CA310
3B4B21C7
BB914C7C
BC9571A1
3D653033
BCCF1B4A
BD16241B
BC898521
3D25980B
BC9648E1
BD3AE0DD
BD28A2BA
3C9A0432
3CC0E8F9
BCD0F45B
3CD73665
3D0DC180
3CBC98D0
3C369042
3CE3BBE3
3C27FB6D
3C154156
3CD8788B
3C2EDB04
BD48AA8D
BC8797FB
3B546715
3C820BC4
BC6D7A2B
3CB35047
3D172AA9
3B70B7AF
BC29E1A9
BC703639
3D3F6849
BB98EEC6
BA859870
3C517179
BCCF99CF
BC861062
3CFF0A0A
BBFE82D7
BC0F20A2
BC8D0172
3C2FE64A
3C35D983
3BCD7241
3CCE0D46
BD1B01FB
3C010CED
BD4AF6A1
BD2DBEB6
BD1CA57A
BCDC4CC7
3D16CFC0
3CCD70DD
3D12AE21
BD2C831D
3BBCF614
BD1FE107
3D3FDBEF
3D02C8C4
BCBCED5A
3D141EF3
3C89ADCD
3C347DC4
BD40E125
BBE393DB
3A05A619
BD414118
BD23A562
3C1AE684
3D3FBBAB
BCCA191B
3D2AB068
3C242966
BCF85950
3CA833A8
3CB43F32
3D08BCFE
3C2D3E69
3C6AD7B8
BBE9CD85
BCEF5B46
BCA264BE
BC92227C
3D1BC96C
3C4EFD7F
BD317DB5
BC4DF786
3C015C3F
3CF8A8EF
BD3FE31E
BD2A0D1E
BD358011
3D1ADDB9
3CB62065
BD367781
BCC559F2
BCA9EF3F
BC412D90
3CB218F1
BAA16693
3C37033B
BD10DD9C
3D2128B4
BCE2CF03
BD0A5DC1
BCA85563
3D1F6A93
3C4967A4
BBE30162
3C182249
3D3DBA05
3C8A8DAD
3CD2776C
BA9FA91F
3C45C226
BBB497B9
3C374F15
BCD84406
3BD5E308
BB5FB635
3CA467CE
BD0E476E
3A93BFBB
3D059E90
BD1375F8
BC090D3C
3D00FFA3
3C814CA9
BD0EA621
3D061D94
BD458E90
BBECF947
BD278491
BCE65DE4
3D04C565
B96C2F47
3D19225C
BCD89404
3CF1071F
3C7F9342
BC369322
3D25A95D
3A18590F
BCCC9B41
3D25AAA4
BC6C8317
3D3CEBE8
3D421930
BD3539C0
3C854E9C
BD16BFC0
3D3F9771
BD09B975
3D2BF71B
BBAAC44B
3C4A3F96
BD325658
3C12ABB2
BD09B6EA
BD376B37
BC2FA282
BCEA6058
BCE855C6
BCFEE3BF
3D404541
BD476F9F
BD0B77E7
BCAC1BCC
BD079BB6
BD09DA2C
3D1AB9A8
BCC98D2C
BD322C67
BD009240
BD423C03
BB783C01
3D271FDE
3D43C8C1
3CBDD28E
3CEC9153
3D2E6A39
3C0280DF
BD4B86E4
BD178AAB
BCE12A84
BCF716EC
BCCAA59B
BC26E82C
BD51A380
BD10BC29
3D1C09D3
BCEA2D6D
BBA37743
3D3651D6
BD49F01B
3CA879BE
BD036A66
3C856A8F
3C5F5AF0
BC8A22D0
BD3AEE88
BD5AF12F
BD5D5538
BD0348BE
3CA3771D
3C5E3520
3B940EFF
3BA5A5D1
3CD4D875
3D29AC9D
BD07D3F7
3D2BEC36
3D034E48
BD0AA967
3D4218FC
3D183B0C
BD11F5B9
BD073786
BBC1D867
3B9C7DCA
BD206F21
3D32DB46
BC703A77
BCBE157E
3BBAABF7
BCB2146B
BBC1D482
BD2714A1
BD095A1A
3B4AEC4F
BCF8A2B3
3C2D8B9F
BB1E2275
BCA221A4
3D235C3B
BC3B3E41
BBF63C2F
3D3C08C6
BC20F5BC
3CBB8163
3D2FA66A
BCFF5FA4
3C75F81A
BBB7D136
BD443D87
BD1A8C6F
BD39F448
3D0EB766
3C6844CA
BCACEEAC
3D1578FE
3C55E805
3B122DFB
BD2E9FA8
BD3B9517
BD0C524A
BB37DAC6
3CFCDD22
3C01264C
3CEB02AC
BB4FE208
BCFBE09E
BCA27974
3D1AF72F
BD211CCD
3D287FA2
BC236349
3D4AECEB
BCAAF96A
BC65733E
BC4301EF
BD36F804
BCE2D62A
BD3B68C5
3C98DE74
BC297213
BD03BE52
3D060040
BBDB57C0
3D4A11EB
BD40A3F1
3CF34B92
3CF7E8B4
3CF2FAE7
BC6A467E
BD234579
BCAE8906
3D20E45F
3A7FB240
3CF89893
3D0A4767
3C6C1DB6
3CDCF16A
BD00B1F3
3D096F5C
BCE40FA8
3C04422F
3CAF4B05
BD300F5D
BD033E6A
3D13B4E1
BCABFF04
3CBF913C
BD329D94
3CFE007A
B9BBEF13
3D1F4C71
BD3E4462
3D05C6C2
3B178AD0
BC030119
3D436A70
3BCC51F4
BC2B8FED
BC65CF5D
BD466C9F
BC31777F
BD2C4DB5
3D440A17
3C6524B0
3D004611
3C192A15
3D4D2041
BCB37645
BA2D409F
3D08CDF5
BD36E70D
3C4F6F08
BD14F8C1
3C1259FE
BC175592
3CDD67A5
3CFC2C31
BCFC723A
3C1396D4
BD22C096
BD08C0B7
3D089FC3
3BE17535
3C8C989B
BCEFDEA7
3BA7439D
BD1A83E8
3C195280
BCD0B7D7
3CF7AD6E
3D453B15
3D32D529
3D26C3E3
3D41FC20
3D471FA7
3C33A6B7
BC87C3AC
3B3E3620
BD1A9A3A
3BC08542
BB588203
3C4B3298
3BAE4330
BCBE711A
BCFE375C
BD1840DE
3C840402
BB528F50
BD256248
BD396F58
3CC5BE23
3D0245CF
3D188B53
BCE9BE1A
BC8A5314
3CC86074
3BBB31B4
3C90D615
3CB4A8F2
3A88B341
BC887544
BB2557D9
BA9344B2
3CD17717
BBEA2157
3C11824B
3C90A970
3D25F449
BD350371
3C7C9A09
3D33C8E8
3CC2830C
BD3B9B03
3C4C7374
BD201C94
BCB5D468
BCB54478
BD008F46
BCF24075
BC563291
BCF16D75
3C754103
3D078677
3D0E874D
3C8AAFE0
BB58024D
BD1EFEE5
BD1AA371
BD3F7680
BD12D06A
3C3D872C
BCA8B9E5
BCAAD333
BD4AB0F3
3C9A1BAD
3D40973D
BD295A60
BD133B65
3C082EE4
BC570473
3D08334C
BD2875D1
BD20143F
3A29F09C
3C8388F1
3C799F5B
3CA8685C
3D34ABDF
3CB0719A
BD1131FE
3CE80CF0
3CF8FC0A
BCF72ACF
BC9CD010
BCBE380F
3D128019
BD09380A
3C88596A
BBB815DD
3CD57400
3D819896
BCB6113B
3C94623E
BD1A5EA0
3D711166
3D611281
3C6D07E8
3D10CD0E
3D350587
BB4DD5F5
3C3069A2
BD495ED8
3D13453E
BCD923E1
BC6245EA
BBEF9382
BBB1354B
3C67961F
3C71BE54
BD095684
3D2DF1C7
BC373E20
3C90CFC0
BCD64313
3CD76BDD
3B4FCB6D
3D396077
3D096D4A
BCBF617E
BD3F1ACC
BD661992
BC4316BD
3D40C1C1
BCC419FA
3B8687A2
393A795C
3C973BF2
3D0404B8
BB4A29B5
3CF764CA
3D117690
3C831909
3D0B4262
3C909B2B
BCB4F990
BD3EE257
BC3C7D99
BCD43681
BCEDFA07
BD541CD8
BCD1FF9C
BD5D7352
BCD49777
BD1C008D
3D235A35
BD1C5609
BCAA071D
BC4AC0AB
3AA48050
BD247581
3B8F0124
BD22716B
3CA98F66
3D60B991
3CC7E4B2
3C1E0B71
3CC1DC9C
3B7FD291
BD3CE946
BCB09027
BC255174
3A903AFC
BD6C7D98
3C833174
3CD1FFF9
3D70E85E
BCBF908A
3C5564F8
3D82D9B6
3A0F36B2
3C9DAD7C
BD112FEA
3B72E731
BA6C888B
BD436E3A
BCBE1C2D
BD45DFCD
3CEB58A0
3D022F2B
BCBA8137
3DA0F67C
3D23DCD5
3D01EEB7
BD09E4B3
3BBE775C
3D371401
3D1A89A2
3CE0AEAE
3D2A6680
BB7F1F1A
3D776F94
3B438E35
BCBE8CF0
3CD4969F
3CCEC1A2
BC82AF2C
BD378E42
3CFF5E94
3D40179B
3C36BD0D
BD74E9DF
BD456C24
3C4E2663
BCC43E94
BCB67AD1
3C92C9D8
BC92B0A1
3C907BA2
BCD9BBAF
BC994625
3D16FAF8
BC90AA41
BCA82A1F
BCFAB76B
BD0C0E57
3C9F11A4
BD77214D
BB865E11
3D2532F4
3D8A44E7
3C04C128
3D175437
3D3F9D1A
3D0DC5FF
3C98D368
3D385D85
3CB079FB
BD35059E
3C328C69
3CAD7A57
BCAAD01E
3D844315
3C5ED94B
3BB2F464
3ABC8DA3
3CD40C46
3C048DD8
BD3416B9
BC489779
BCF4249F
3D243FE5
BD012201
3CCDCBB9
3D82B9E9
3B5773F9
BB290E18
BD22CDB7
3CD65B64
3D27D716
BD2AF09B
3B9C3FFE
BC503301
BD545A8C
BCC8076D
BD3361A0
BD1EDF2A
3C7B3EBA
BCC53696
3D0A642A
BD31C5E8
BDE6BE77
39028CEF
3D5FCE89
3D677505
BD2F878B
BDCD79AF
BDB77F6F
BC886C5C
3D3D305E
3CF55EDC
3D3B556E
3D1D9ED0
3C760009
BC371DB8
BD259D57
B88BF703
3CA6C3C6
3C9DB078
BCA40515
3C1D3A37
3CFC43DC
BB91F1BB
3C8A73DC
BCD48BE9
BC99C503
3D360B36
BB38EB1C
BD50B55B
BA918B21
BD386C1B
BBB3254C
BD1A44AF
BCE17C07
3D6A0261
3C0BFBCE
BD8F7545
3CFDED6B
3B3F21E6
BD523269
BC77A824
3CD843BA
3C17A8DD
BCAF35FE
BC9EA211
BD07C3BD
BD91BAC8
BC3B658E
BCC55ECD
BD2EB0BD
3BBFA1AA
BC0DCB84
3CE67246
3CDECFA6
3D308778
3D5318A2
3CA6A3A2
BBE87226
BBA54E07
3D274732
BD8C5265
3C02EA21
BB6EE218
3CBCD1F5
BD487C28
BD70E00C
BD0FA742
BD119C85
BCEA3806
BCD76864
BC22D693
BCC99A51
3B8E6CFC
BC983C32
BD03AB31
3CD12B28
3CA15469
BD1CC11C
3C7F390E
3BE693E8
BC02DDB2
3D47A866
B9745E8B
BC4743CB
BCC1AE49
3C3511D3
BCBB6C45
3BE43BA7
BD1F18B0
BBCC8D34
BD09191D
BD453E0D
BD03FC07
BD3B9AB9
BD4A266D
3CD37CC6
3D5AAC93
3D34AF52
BCE9742C
BCE73A28
3C8AC088
BC8DA338
BC26DE94
BD0D6D6C
BCDDF076
BD9236A7
BD4FEA88
BDB7D54F
BD141958
BDC17ADC
3D2B94DF
BD392052
BBED6AE3
3CBDDF45
3D7B17CA
3D0226C7
3D946EDD
3D4FD0DA
3DB0AAC0
3DAED1C4
3D0E9A69
3BF30886
BBFF1E6D
3BF0F501
3D3D6913
3CE85652
BCD008F8
BABC5946
3B8FD6D4
3CDE2376
BD86368F
BD75154B
3CCC44C0
3CF6BF5B
BC1E5F36
BC8793ED
BD7DF692
BBAED9D3
BC0C4780
398FE321
3CFCAB2F
3D2B67A7
3D2F4938
3D6890C0
3CABF271
3D3AF1BD
3C4645ED
BC825B7F
BC29B334
BB2EF320
BC2F095E
3CFBE85C
3D141B08
3D3274B7
3BDA8E28
3CDB41E1
BBDBC889
3C617984
3C52AC02
3D08F809
BD4B3A7F
BCE31E6B
3CB6FC86
BCCDE387
3CE7A18A
BD0CD910
3CAFFDC1
BD02F9FA
BCCD24F4
3C4A4195
3BF6371B
BD3B1F11
BD9C366D
BD97F7A9
BD2B5F69
3CD2736B
BCE3069D
3CCB808F
BCE8A55E
BD847356
3CC931AA
3CA6AD06
BD4E5CFB
BD1C9150
BC16D5AC
BB2EAC94
BD2D3A53
3D107996
3CF606AC
BB929462
BD6A91ED
3D1E7252
BA9D86B4
3CF64FCA
3C7C48ED
3D1C9C07
BCBDD56F
BC6CE252
BCD57BE5
3C53114A
3D51C61E
3CC13F8B
BCD3D3F7
3D127367
BD3DF203
3C9B1028
3CA9392D
BC9FC751
3C91BC28
3C778173
3D448A4F
BCF6A4B2
BC55AC0E
BCBB2F92
3CCED5B8
BCB190DA
BB03E182
BD28C63E
3C9012F4
BCF7AC50
3B854BCC
3D473493
BD0CDE97
BCAE988E
BD81A55E
3CE1099C
3C62D6B7
3D54DED7
3C86B7AB
BD07B582
3D8B0309
BC76C9A6
BC3E3BB0
3AB30CD0
BCE65DBE
3D45C7A6
BD36320B
BC4A06EE
BB641210
BC8C3211
3D090D03
BAB74DF1
BD1A9AFB
BCFEEEAA
BB84F6ED
3C82B170
3CB26A66
3D555452
BCBC3502
3C803950
3C82633C
BD0DD008
BBE3374D
BD880BF0
3C1C3B69
3D657B19
BC85EDC7
3CEF9A90
3CC0A8D0
3D1AA58A
3D4E10AD
BD5423CD
3D063A37
3CE53418
BB754C6E
BCEEB1CC
3D0287C1
BC3FD7E7
3D362F7E
3BAA969A
3CE706F7
BD491E71
BD14C5A9
3D37380B
3D263B2A
BCC4DBA4
BD54068E
3C8409B4
3D63F74E
3AFF38ED
BCC4E37E
BD1CF040
3CD3A7B5
3D1F7AE2
3D041C59
3C89B2B9
BD04B7A2
3CE98073
3D1DD446
BD10AA68
BCE1CCD1
BCCADAB2
3C3201C0
BC493517
3A139335
3CAE0494
3C1DFCEB
3D86250A
BCDCEEDE
3B8A4F14
3D4FD443
BBD8F205
3D0EFE4D
BCC8E1A3
3BEADA10
3B32BC8D
BD90F1AB
BD875B84
BD757972
3C1B4C4C
BD2F4294
BD317827
BD533F6C
3CCF6BBC
3AA17721
BC9539D1
3D676F0C
BB305F68
3C887F5D
3B325EF9
BD252B41
3C98A7D1
BCE9CE65
BD23AF48
BD33C011
BC8A5D39
3DABA9C2
BCCF1E3C
BDD80DE7
BD0AA9FD
3C39788E
3D20B2AA
3BE29D55
BD87FDB3
BC572486
3C33A110
3CFBCEB5
BD5618B4
BC424BAA
3D30525F
3C7A0251
3C1946BA
BCB5A8E0
BC35BD35
3D0CC560
BBE3978B
3D262DE0
3D5BD0D6
3C9507BB
3C8C6523
BD634934
BC60E5DC
BD0335E7
BCD10609
BD114574
3B4C973A
BA4C29B2
BCDD133A
3C6760D4
3D1BB866
BC6B4D8C
3CBF7373
3C4B7DE3
BD10E5A5
3D0498FA
3CD43178
BD1BB624
3D2D8110
3BD1D7ED
BCA1E8FA
3D8F10BD
BBA05F91
BD465014
BD987653
BC77ADFD
3CE02699
3DBB4491
BCE1AB59
BD80D216
BDC2193C
3D8A3D10
3D9553EE
BCD70D69
BD515E00
BCDA1B0F
3D132E72
BC7BB552
BB4FEB6A
3D00E305
3D7ACF21
BD55DF15
BC0996BD
BC4F9098
BD0C7923
3D5FC353
BC5B7B5C
BD9B91ED
BD14A984
BCE2DC37
BBDC4F71
BCDDB502
BD74F222
3B0AB778
3CAEBFD1
3CD0F79D
BC1C0E38
3D17B7D4
BCA3CD27
3DB2A548
3D9F4AC4
3CAA97C9
BBE510CD
3D7B2794
3CD35F41
BD5D75F8
3D05FB0A
3D690716
BBD5B64E
BD61B8F2
BD4EE056
3B09FCD5
BD38BFD9
BD0F2567
BB387078
3C587303
3CBF16E0
BC2D3D4A
3B55DD3A
3D4057F0
3D8A7171
3CC9740B
BD0575D6
3C982CE3
BC8DE848
BCA43A21
BC0AB3F6
BD0C4399
3BBDBC3E
3C5DA731
BD369B9E
BCB2A104
3BE8FEF3
3D6F049D
BBCE0701
3CFC2BC1
BCA3B6D6
BBD1C454
3D539A85
BA9B595B
BD620283
BD3470F5
BCC65A57
3D540387
BA94EA65
3DA37F92
BB08C331
BD0A4D2D
3CE3CDBA
3C6D55A9
3D54E799
BD801CAD
3D26EB23
B9F4163E
3C70BEB0
BCC32E6A
BCDF5EBA
3C471DBD
3DB3BC2E
BCD03596
3C02C9AD
3C855ABE
BD1095BD
BB8AA3A6
BD51BCF7
3CCC585C
BB51844C
BD068362
3C5E1D92
3D3758B6
3AD60B95
3CE3A0DF
BCCF223F
BCDD9250
3B71215B
3CE2954E
BD2568AC
3D1EB851
3D313C93
3C9C1BE4
BC3F6A48
BBA3FABD
BCBAA174
BC5E7A71
BCEA9515
3BE1A2E6
BBBA6990
3CFB6877
3D9FDFF6
3D4668EE
3D505537
3C66FC1D
BCE09310
3D181031
3D7F954A
3D41B70E
BD7CF9AF
3CB94685
BD26A972
BCDFEF6E
BD8B7ED2
BCD396A8
BCEF7868
BD6816CA
BD08BD44
BD301D93
3D363E2E
3D2D0914
3D47656B
BCAD8D2B
BD69E725
BC882526
BD125F00
BC48B645
3D6D2231
BCB1A3D6
3C9F0CC2
3D024A3D
3D45DFFF
3D97AD67
BA954034
BCCF387B
BD745F71
BD4F8EDB
3CF11830
3C7424C8
3A0217A9
BD208CC7
3940C4D3
BD177781
BD788895
3D32B112
3D636F04
BC9C12B0
3D049272
3C1FD324
3C48C62E
BCA88F53
3B362CF1
3D39C055
BC0AE94C
BD484677
BBC01BEE
3C29898C
BCFB1A3A
BCDA40F3
3BE38BAF
3BA0D7BD
BD0CC746
3D4844D4
BCE45A4D
3D2E649A
BD3832CE
3C810C82
3D3B450F
BCB0BBDA
BCB0BF8F
BC97A582
3BF5F5D3
BD25AB3C
BBB15A80
3D03E57D
BCADF880
3CEDD374
3D8199D6
BBE64479
BC9A21EB
3CE9B810
BCEC96E6
3D4BFBBC
3C0896E2
BD1BCCBE
BBECBA6F
3C4D38B8
3D017F53
3D2EAE39
BD7F02E4
BCB83CC8
BCE75DDB
BD1A6169
BBFF1164
3D16E6C8
BBEB2681
3C9563D6
BC8D0E5E
BD422B2C
BD4CEFBC
BD02A83F
3C82C8EC
3BFAE0E0
BC042BC7
3D212783
3D896A64
BCA10752
BC1AA62C
BCD41D94
3C3E6AA7
3D2523A1
BBF8A157
3D07FBFB
3CD79A83
BC8EF9EA
3C47EC9F
BC789B01
BD061222
BC7B4B3C
BC826171
3C988B40
3D35E348
3D13620F
3CAD0F86
3D0A14FA
3D1211F9
3D47525F
BCE13369
3CA29182
BCB4E647
3A75571A
3D0FE8CF
3D36BCA7
BD15507C
3C6E22A2
BD3161B2
BCCB9BA4
3CE95042
BCF40ED8
BD6198A7
3D1496AB
3D23AEF0
3CA9D5B5
BCAAC233
BCD340CB
3D15A436
BC493DF7
3BE2C352
BC4AA2F1
BCC2403F
3C7EBDC8
3D58D226
3CCBCD0A
3C6916FF
BD086A9A
3CEDE02E
3C9E8B33
BC363AEB
BCB6B62E
BD1413D9
BC44F2EC
BCC98546
3D282270
BD234A70
B94AF15F
3D5B5A58
BD2D3137
BC14E613
3D345DEE
3D188457
3D404A0B
3BE78780
BC86E816
BC4664E1
BD253237
3D16CDF7
B8C5A7A1
3D55C5CE
3CD7B65F
3B3EA9CC
BCFDB7C5
BCACB847
3D393717
3CE07839
3CBFF5B8
3B9E696D
BCB92CB9
BD714A27
BD51AC52
BD740816
BD32C8A3
3BC0E8C8
BC5F449A
3CDCD880
3C2DD1B5
3C8E7561
3B863944
3D7B78E0
BBFDED6B
3C8EF730
3C9DB95C
3D9D5C11
BD70B7B7
BD87B882
3D63D2E5
BCC63C1F
BB4CC36D
BAE04822
3C98508C
3D3A18E5
3CC13AC2
3CCF71EA
3D2C2DE1
3D8F23BF
3D5DC0BB
3DF6DF24
BC22161D
3C41F225
3D89AC7D
3C3AF5A8
BD1345F7
BCD34C2C
BCB65A55
3D1EBC8F
3CCB2505
3BC1F83D
3D2FC79F
BB79E65A
BCFE50FE
BD56B42C
BD885326
3D1951D2
3C9E36CD
BCF12241
BC0682D3
BCE4A524
3D9FF11A
3D3BED67
BD0A0D5F
3D2B684A
3D0DFC6F
3D586FD3
3C9B6987
BD7D6F2B
3D6A0B55
3CFBC1F4
BBDEEA1F
BCE301F8
BD8C3513
BCDA6006
BC864DEF
BD1F65EC
BCB14707
3CDD389C
BB862C80
BD53AC09
BC957A6D
3CFEB3C3
3CE5FAD1
3CABD79F
BCC499C7
3D207DE7
BC94E0B4
BD1A2E3D
BD0E4061
BD13EB2A
3D998D21
BD17C15B
BD57ADC1
3D092A7A
3D860005
3D4177A3
3D420E41
3BB21B87
BB128EF0
3CA76C2B
BB951BC3
BD49A6FA
3C95A43D
BD0B49D0
BD411E2C
3BB83B73
3C2941DE
3D2D38B6
BCA96C2A
BC4CE972
BD23F759
BD03EBDF
3D5C584C
3D69A836
3D6611A7
3B87B8EF
BD902C5F
BCA0F377
3D626F7B
3D5607BF
BD92BD4C
BC7920B6
BCDE9136
BB88C212
BC831AA5
BB8B6ED7
3DC90450
3DA679BD
3D02227C
3D66C584
BC0D14D1
BCA92181
BCF3F3FF
BD5392B9
BD9A8A11
3BBAB1EB
BDC60EC2
BD8FAE99
BD2E519A
BDDD7DF1
3D568780
3B17AC10
3CA72FB6
3D189039
3CE06BA4
3C7530DA
3D844B53
3DB0FC74
3CEEFB0B
3BD4FA18
BD117C73
3C9FDEEC
BD214F8F
3CE2268D
BCD494E0
BD57BEF2
BC867109
3C2B5F37
3D892588
3C57E8C9
3C743767
3D50FE13
BD8ED7FC
3C32633B
3D469739
BBBAF9FB
BC236A39
BCA75D7B
BD809E43
BD8E4058
BD062ED6
B9E7E45E
3CF41787
3A401539
BCFD8608
BC518F80
BCA43DDB
BD3BF4C4
3BC76033
3C8A620C
3B5E5AD1
BCECC040
BD738635
3D29006B
3D456BB8
3A0A4531
3D6A84C5
BD25883C
3D394376
BD4DC208
BD12ABC9
BC68FB2E
BBB6132D
BCC29DB0
BDC4A047
3D50CF28
3DF96822
3D9BE2E9
BD1C1942
BC6F2064
3A32A3D7
BBA2AA21
BACA403A
BCEE07BD
BD181277
3CF300E0
BC980319
3CCAB4FF
BB80B988
BD4D0649
3D37F4E9
3C85E8C6
BCC8800B
BD2AFA5B
3D2021B3
3C913C17
BD11A7B7
BD1B6A25
3C8B2E64
3D475E97
BD0351C8
BBC9BC65
3CA1A2C8
BCEFEDD9
3A515B13
3CD665C5
3D451100
BD0CC795
3C879D1F
3CEF6E06
3CF3DC62
BD54F7CC
BD7F49BF
BC12E2A3
BBFCF4CB
BD61526D
BC4366AC
3D6D4446
BD13BE1D
BD855258
3CA88E91
3D67204D
3D7076D0
3CBE863D
3D1076F7
3D4185EF
3D1A7EA4
BC5248B8
BC0901A7
BB5AB08F
BD1270CA
3BB19637
BC722751
BD43C904
BD13F598
BC984548
3CE2F71A
BD45C27A
3CD027E1
BC89931C
3C231617
BC84CC58
BD2011B3
BD861D08
3D06DB4D
BD2654BE
3D5C7B4D
3CC16506
BD3B700C
3CB652A7
3CA2E009
BCF62DC9
3D06C7C2
BD09FCC8
BCAFC863
BCB9883C
BCB36203
BC61ED80
3D35FBCF
BCDBABE9
3C840834
389A8A00
3D0FE48B
3BD32E8C
3D045A39
BCF5035D
3BE47770
3D445749
BCD9433D
BAB4A645
BD34FA1D
3D3FD7A1
3D027ACF
3CC38045
3CDD4051
BD4C5BA6
BC878E0D
3D0C1A31
BD4FAA15
BD1664B4
BCBC6EFC
BCCC96E0
BD37C5EE
3D828C9D
3D3308C3
3D065DD1
BBA56A27
BD81E1D9
3D83512E
BD01BC2C
3D0D7170
3D4DFC00
3BDEA9C6
3D4356DA
3D326828
3D360BE7
3C667380
3CC3EBA9
3CC40461
BD5C9BA6
3CA557A7
3D0CDDC5
3CEF6187
BD5E9A4B
BC6E1D7F
BB2F0E64
3C862B6A
BCDFB1AE
3D0064BB
BD7E5BBC
BD21F96B
3C1D25EF
BBE9700E
3CCC7850
3CD42D32
3BA030E3
3D526F5B
BCA08CC2
3D06CD04
3CD6D0D1
3C957198
3C1CA89B
BCF01C1F
BB3CE593
BC77EEB0
BD1E76CC
3D1CEB0E
3D06CEF1
3CCCAA14
3C833F18
3A91A2C2
BD357BE3
BC5999CE
BCAE7A55
BCF90CD0
BCD806EC
BBEBFB75
BD2703DA
3BD80A00
BCF85E75
3B17D228
3D4971BD
BC9D654E
3C1AB660
BCFDAE8C
3B4C422D
3CAD989E
3D24C77B
BD3E31E6
3CD7E3AC
BCEE9E97
3D27F04D
3D1CE247
BD0D8451
BBBEF355
3D2EA1FD
3CE70666
BD19255B
3D439EAC
BB81BCBB
BC20238D
BCCD86DF
3C4C7345
BD002A75
BB24797C
3D52EC6E
3D057261
3D25A2B9
BD41E052
BAF6CCB3
3D390AC7
3B42BEDF
3D260E0E
3CD059DD
BCBD7C71
3CF8A2BF
BB956691
3CEC9115
3CE72400
3C813663
BD137D5A
3AA9CA8E
3BEB561C
3C2EAD75
BD12F691
3CA9F361
BBF1EB48
3BFFEF73
3CE13F5D
BBEB6BE1
BC2AEE86
BD01B784
3CF826A1
BD34B09F
BCD680C4
3C2061B7
BCF8773B
3BB0A001
3D37D057
3D2F2627
3B96DFA2
3D4972FD
3CA469BD
BD26A324
BCD814D2
BD2C7199
BB465710
3C07A777
BD300054
3D6F80AA
BD7994AB
3B36877E
3C267600
3CF8C34F
3BE2BA79
3C43E373
3D3FB8F0
BC783BDC
BCD9C16C
BD17B48D
BCC93AE1
BD14DA57
3D12B38A
3D455F04
BD616254
BD1D0681
BB52650B
3C10DDA9
3CB240B8
BD3C6355
BCA0CE99
3D24DB74
3CA21CA8
3D24217C
3C792640
BB0E5460
BC4E8522
BCA27D42
3C800D01
BC0C0DD9
3D0B889A
BC9744AA
3C2D7F4A
3CDC6534
3D0A0659
3D36A003
3A8D7A6C
BD2553A2
3CA36822
BCC4DB9E
3C79C50F
3C814FC9
3D23845F
BBFAB302
3CFC3FAB
BD22D508
BC9EA0CF
3C98AAE6
BC9AEC33
BD09B994
3CD143DB
3C519366
3D468791
BCCD554F
3C99CA65
BB70C294
BCB084B0
BCB47B94
BB63B500
BC512695
3C045278
3D23FA1E
BC59984A
BC02AB5C
3C64A97E
3A9127D6
BD318FDA
3CF62822
BCE57BEC
3C24A254
3D343AA3
3CAE4FDE
BD29563A
3B8FC41E
3CB0F653
3C41C38C
3C877051
BBD3691F
3D2ED347
BC76A5BE
BD068120
3D576766
BCC617E2
BD1E54D8
BD4AEB05
BC87D127
3D36FD36
3D1BBAD6
BD5711CE
BD2B083B
3D23C2D9
BB9154A1
BC734E99
BD5B8FD8
BD069E82
BC42C68E
37A2C8C8
3C64FA5D
3D009AC9
3C8074B5
3D42AF45
3D026807
3D132E1F
3D2771A7
BCC3459B
BD1D8150
BCF41F76
3C7BAA8E
3D18A09E
BCF28113
3C6D2C96
3D9D0850
3C6D0073
BCC06166
BA1F4597
3CCD1AFE
BAAAADD5
3D5D5871
BD0392E4
3A088316
3C9B632F
3CDE07C8
3C17AA6A
3C29FD9D
BBA4C12D
3CBA93DF
BB7554E2
BC9B070A
3C07FC43
3B7B5AA1
3C988585
3D60A7A2
BC0D894C
3D2CEC3D
BCFFC235
BCF78984
3C101F04
BD15DEA0
3C3F3186
BD45AD6C
BC6D26FE
BD1F1EE2
3D44C671
BCDB382F
3CECA2F0
BC8F0CE9
BC270470
3D5837B0
BC619BBB
BD5A4EA0
39CFBEC2
BD30A5F8
BD781563
BAC98879
3D920A48
3C1674AB
3D0F836B
3C9F632C
3CE3CBB0
3D597B44
3D0AA463
BD11379A
3CC89873
3CB22FA7
BA8E5FEC
3C7C6B0E
BD02F7B1
BC998798
3D237616
BD4B4605
3D036EE8
3C2E6097
BCE8D55F
BD00A694
BCAEC85C
3CC53DDB
3D351257
BCFE6FE9
3C9C205F
BCBAFAC1
3CC2DDFA
3C43DEB8
3C51A23A
BD1C37EF
BC5726B7
BD49AC8A
BD3C2583
BC491B7E
BD3DEE59
BC8701B6
3CCBE32F
BCB5AD5A
BD3A3D2E
BB13EF1F
BD436AD4
BCFACC00
BC566A68
BBF9B0DF
BD246C46
BCC298A5
BC0C3D17
BC51B060
3B0910B0
3D2C73EA
BAC4A837
BD8292B2
3D017E83
BCD96F9E
3C8D3A39
3842B738
3D2E0FE3
3D039CDA
3C1E060C
3D0715D6
3C5402A1
3C7FE520
BD1BB9D6
BD3F466D
3C0CEE80
3C6C5FF1
3C4C29D4
3CC2C150
3C972431
3C8F9645
BCA8B82A
3D60F2F0
BC68F397
3B12FA3D
BD522A41
BB58E608
3D2653B7
BCE72DA1
3A46B95A
3CC70084
3ADE25A7
3D2B0537
BCD5B98C
3CFF1BCF
3D031FF3
3CDF9388
3C5341B3
BD2E85D4
3D0E7D8F
3D1DEFF5
BCE300F7
3CD36D90
BCB48A80
3CFCA852
BC22F3E0
3D1A3ED0
3D34B1F9
BC507BAC
BC111F74
3D2CC6DC
BCFE9954
3D12669D
3CFAA126
BD282B6D
BCC86C9E
BD2E5566
3CF8F65A
BCCA2137
3BCC6B68
BB29F3C9
BC1C09B5
BD2454A9
BC8E48AE
BD3C5D23
BD18D74D
BD512830
BC907C8F
3D530202
3CB11A4F
BBB7A4A4
3B3D80B8
3CC4A2E2
BCC79608
3D076143
3CFD8B64
3CC0C47E
3C96FAA0
BD257F1D
3D3FACD5
3CCA8B03
3D4335C4
BA4ECA17
3B164D99
BD30F3A0
BD053F18
BB35EFF2
BD05B3C8
3BEE424A
3CC6753A
3D1AA474
3B8C1496
BC61EC3E
3CE81385
3C765915
BB5A1042
BD081CC6
3CD3376D
3C570DD4
3D005049
BC071F2C
BC388F99
3B5850B1
3CEBB518
3D2E0A3B
3D4B9071
3D2BC2DF
3D2603F1
3CCADC63
BBC3D899
3CE63282
BCB989B7
BD3FE1F5
BD3A58DF
3D36B5C8
BCA57BB6
BCC71B9B
BD286BAF
3CED8F19
BCDD06DE
BC672D54
3D1554FF
BD095E4A
3C7E6FE4
BC5638AE
3C09A624
BCD0C18E
BCDF8B73
3CC324A3
3C16F567
BCC36EA5
3B27DA2A
3C9A08A9
3D15B209
3D2CA71D
3C216C99
BD6281F6
BBF8D2AE
3D08DF6C
BD06DA8D
3D3003D8
3D5F88D3
3AB1A499
BC49066B
BD621969
3B8E7502
BCDDAD62
BD7CE4F0
BD7867F2
3D1CBCD0
BBE74320
3B2D3A7C
3CB2E924
B8A3FD53
3D58420B
3C164EFA
BD79727A
BC19F39D
BCC471EE
BCC5CC6F
3C374CDD
BC8AEA1E
3D2DD38B
3C98B67A
3C175E58
3D1002FC
3D2B1999
3C4360F0
3D3385EE
BD0E605C
3B4EF634
3BE65F85
3CD5D307
3C43BC4C
3D4DF812
BD3143F4
3D3654FD
3D40C594
BD15EDA9
B9965AF9
3C905963
3D574093
BC996DA7
BD1D1BB5
BD022C02
3CB6F186
39D94FC1
BD142DC6
3B98E6CD
BD31C7C6
3C83C2DA
3CB3F455
3D151FCE
BC6D8E98
BD86BA61
3D117049
BD2D05CD
3C0AE600
BC76FF6C
BB98F6EA
BDA33A04
3CCA8FD9
BC828A9E
BCFD6D7A
3D5585AC
BD88D258
3B253D03
3D3C639F
3D649A95
3B2C8AAE
BC65473B
3C0E0264
3CD780D2
3C2CC58D
3C7AFA82
3D233C75
BCB3658A
3D5CC3C3
BD3FB8D8
BC556FB5
BBAD7663
BBF00DEB
3CBE11D3
BCBC6C67
BD665795
3D06B7B9
3C909177
3CEB0C9E
3AB3C59D
BC151AEB
3C73111C
BD43A355
BBE26C33
3CE7D742
3D050B49
3CB62FB8
BBC3C4DF
3C5B7FCC
3C9F23DC
BD084628
BD35C0D1
3D2F70EC
3D24A2A0
3D378C25
3D4D47B2
3CA133D7
BD0FD854
3C96ADC8
BC7DC45D
BD5390ED
3CDC3589
3D9C6798
3C62263A
3C3DE17B
BD2B1BBA
3C570C6E
BCF1C7AF
3D257537
3CC90A60
BA085B59
3C705B03
3D59588B
BD14DBD5
3D2A90B8
BC059F9C
3C8705F4
3C7F6C4B
3C06581D
BC84614D
BACB8984
3C72CDD5
3D8E784B
3B7BB30B
BDBA9B8E
BCBBA908
3CA580E8
3CE42D8D
BD437826
BD60B978
BC87EF89
3D0B8AA1
3D0C685E
BB1E0715
3D1AA599
3CC4FB17
BC239BFC
BD4C1233
BC7148B4
3D16E6C7
3D18A3CB
BCB08730
3BAE6B47
3B3CAB58
BA9EFEBB
BCD159C5
3C8CEE7C
3B9CF1C4
BD625814
3C16C016
BD2C7BC0
BC945FFE
3D009534
3C9FFA90
3D8A9A55
BCE50A5D
3929FFB3
BD0F6437
BD0599FB
BC53F0E7
BC3BB1AD
BC21E805
BC2716E7
BBFF7CA4
BC3C3F2D
BCE606C8
3C1C68AC
BD084565
3CBA1A58
3B4B78C0
BD40D347
3CC1ED05
BCC0FDEB
BC17B9D9
3C7DB957
BCF32A1C
3CD5A7E0
3D33CB2C
BD12C59D
BB9B0EF2
3CC98CBB
BCECD6D2
3D2C82F3
3D0FA310
3CE267A1
BD26BBD4
3D065D71
3D827713
BB40F52C
3D476BB9
3CAA5663
3CC60B9F
3C47A9C7
3CFED60F
BD90B9CD
BCB9E838
BD8B01E9
3C4C438A
BD89DDC3
BD73A70E
BCE61C29
BD089E42
BCA17F8F
BB3150ED
3D2BE562
3CCA3B63
3AFCD663
3D57ABA7
BC3B4403
BD4207DE
3D18CB40
3CA16D42
3D850EED
BB103B73
BCFA4CD2
BD1F0DC1
BCCC0270
3D23D9B6
3CA0BD12
BCEDAF6B
BD2991C0
BD41243C
3B85CF4A
BC30D700
3C751812
BC4136B5
3D405846
3D4D0227
3D145868
BD14DE4E
3CA6769F
3C557EB5
BD34705D
BCB88EC6
3CDA6ABD
BC428BC3
3D15286D
3D2394A6
3CFBA579
BCFAFB0C
BC9AD1B2
BCEDF5D3
3D05E528
3D66AF14
3DF7D81A
3D79FCF0
BD738AF6
3D449134
3C47208E
3C6CD904
3D0107BD
3D2D6083
BD31D6C4
3B2AD1BD
BD0F23FA
BD999B93
BD01E3D0
3D387701
BC68FEA7
BD1023B5
BC8AA628
BD13834B
BC3CEF4C
3D0E2A53
BD15A277
3C92734E
BD48B0B8
3CF697EA
BB2342C3
BC441B2E
BC9F9F7C
3CCE43B7
3D65EC0E
3D906B55
3D780659
3C995B3A
3CA1B351
BD4A75F3
BCD451ED
BC9CEE58
BC0678AE
3D63A437
3CEA69D8
3C9D273D
BC653139
3D1152E7
3BBDA811
BD108AD2
BC581E5E
3CEFAAF6
BCAFD0F0
BD2FF341
3D0D9433
BCBFF2C9
3C9F7D46
3D355FAB
BC841A62
BD057162
3D4ADF0B
3D2B2BED
3D388611
BC9CBDEB
3B4BBA36
3B867800
3CD67F48
3CFBC1DA
BCE2EFDA
3C514EF1
3B5EEFD0
BC05A798
3C82B7FA
3BED7581
BD4906AF
3CE48015
3C7CBAC7
3C332683
BCD4B570
BD053F67
3C3B06B7
BC8D5702
3CD1A13B
3CA4AFE7
3C69AA7D
BD2EC19C
3CB75B74
BD5EEE9E
BCD64B90
3D14C672
BC9F9B40
BCF91712
BC81C48F
BC9F6890
BC56F448
3B9E7954
BB05D352
BC9865FD
BC75593B
3D727FD7
3CD674B5
BC3E8D86
3D0DEA92
BD0E9166
3C6C5F44
3C7C8DD1
BB08EC11
BB17AE1C
BD3FC13D
3D1A7349
BB0A0084
BD480DCC
BBE2D4A0
3C9DEDDF
BC93A422
3C2E8EF8
BCCB8C54
3D1FCE71
BCD78D31
3C8BC9AF
3B6F11EF
BC4A29AD
3D7315B3
BD0C4575
3B81F563
3D129919
3BE67213
3D28635E
3D306935
3C83E4AF
BD698180
BD4A9796
BD97B0A1
3D06429B
3DC7E863
3CD83D8F
3B559CE6
BC8C8A3A
3D7427F2
BB0F3EB2
BC3C05D0
BCBFCAF7
BC5912CA
BD24582E
BC8B467C
3D45F634
3CDCBE16
3D0DA8FD
BD099AEB
BB84C587
3D56C6D3
3D6F0027
3C443BFE
3CD18691
BCF8EEE2
3D08EFB4
3CB56F5D
3CA65DE6
3D37644B
3D228626
3C308583
BD2C3A3C
BCEB670E
3D006482
BC2ED1A0
BC5C5097
3AB9669A
3C8019B8
3D4069A3
3CF53DEA
BC370239
3B40724D
BC1A3F7D
3D66BBDA
BB244502
BCE6ED5B
BCB23534
3CE1C169
3D37927E
3CE0A0B3
3C132E96
BC9371A5
BC1D9C89
BCD8E893
BD10B3D8
3C9300A2
3D0DE08B
BD2DA485
BCF5910E
BC3F3C4C
3CBADC04
39BAC445
BC850052
BACCEDB5
BCAB80CB
BD6E58A6
3BB14870
3BC4893D
BD281B8E
BCF6AF69
3BD4E616
BB20F012
BCD9A2F0
3CDF0A15
3D97AF5F
BD559EAE
BD557276
3D36B6B9
3C960EE4
BCB7D123
BC12359A
BD971161
BC7C5B71
BD8BB830
BC61060A
BD3F54FD
BCC5ECCB
3C253D64
BC85F008
3C217CD9
BD3D889F
BD0E9286
BD98E416
BD72EA24
BD3113E0
BCBB49B4
3D2559D6
BD0419DE
3D408FC1
BC44196C
BD05D857
BDFF1D7E
BDBA8556
BD0D44D8
3D585DA1
BC03B7A6
BD7EC80A
BDAAD654
BC4ACEBC
3D1DA1ED
3D820570
BC050B66
BC5B0224
3CDAC29F
3D0F3DB5
3D0F6123
3C913DDB
3C451878
3B6A5497
3D05B0F8
3BEDCDAA
3C8BAC78
BCCB31C3
BD8E34A2
BD327711
3D6DAE19
BC2D3661
3D61D433
3C4D9BE2
3D86152F
3C7ED9E1
3ADF0D60
BA8A5495
3D986B79
3D9C76DF
BCF8CCE4
BC8F7487
BCEF5DE2
BC5A28FC
3D42F25A
3D33A912
BB621D5A
BC54FAF6
BD7458A1
3D531E81
3D3E3E51
3C5DC7A6
3D3CCC10
3D948DA9
3DCD6FA3
BD136339
BDE0521C
BD04A7EB
3D9A8484
3D386AD9
BDB65815
BE07421F
BD134890
3CD94BC3
3D67E482
BD749657
BC08E7EE
BD98A516
3C47242F
3CCEAAAD
BD5AA2B4
3C5F04C8
3CA00E86
3D182CC1
3BC701D4
BD8B53AF
3CF61C2E
BD1CEEFF
BCA6D24A
394909A1
3A47EEC0
3CA8E71D
B8A6EC99
BBCD901F
3CC71187
BCBE2334
3D19E366
3DB120AE
3E1D0633
3DC195C3
BC6D86E6
3DA4C0F2
3D8AFE88
3D91DCC5
BC2D267F
3D303C36
3D9243CC
BB14C7AE
BD09758B
3D71B74C
BC43CDCB
BD859E8B
BC86FA75
3C82935E
3BEEB92C
BC428876
3B0C0F51
BBA12F10
BD02ED54
BD5C7B8B
BCB4828C
BC29AF9F
BD0FB54E
BBE0BB2F
BC875C1C
3BAEAD22
3C6E36C0
3D034735
BCC78840
BCC53731
BCFD1087
3D27911F
3D36352C
3CA69E4D
BC7CE494
3C14724A
3CFAD3F9
BCA05946
BD01279C
3D11D3E2
3A5ED725
BD1F767F
3D23E063
BD7160B5
BBF7CB37
3BEE8B3B
BB849336
BC2EAABC
BD106C8B
3C7D75E6
3D04CB5B
3CFE9925
3CDBB826
BCF5F1F7
BCC48057
BC2FAE83
3D2EB5F9
3CFB72EF
BCF6F7C5
BDE6D8B8
3BE93013
3B09F339
BCCB9EBE
BD1E3AFA
3D236BB4
BC3E16B8
BA283660
BD53EB61
3BD91133
3CF48C0B
3A8456DB
BCE25D70
BCEB21D4
3CC574C9
3D0DA6C2
3D3CF435
39A49F88
3A11D082
BC0FC509
BD4C51A6
3D1E0A46
BC9DE70F
BD01F337
BD3AF23E
BD2827BA
BD3DDB5C
3D299167
3BF97A61
BD692148
BD296B09
3D946247
3DD75A13
3C86A92D
BC86F344
BC99D3FD
3C14FB8F
3D46B875
3DB1F32F
3D69BB56
3D4A03CB
3D44CCFB
BB4F5C3B
BD0B698A
3D110512
BD293C08
BCF55269
3B2CA3AD
BCCE133D
BC308E22
BB1ECF59
BD8DE223
BDABF0AD
BD6C1656
BBA1664F
BD4EC4F2
BC22EFDE
BCA55B2E
3D651D1B
BC0549D6
B9821820
3A1C13BC
BBBD9263
3DA4F7C8
BC547E28
BD5CB9ED
3D227638
3D811B59
3D59FBC9
3CD543B4
BCF56FFE
3CA28FA5
3C59AC77
3BAA9A4D
BD000216
3C4EF914
BD576CE6
BD4B4DAA
BD2D76A6
3A890703
3D38BCF7
BBD45498
BC7EEE6C
3D3B4159
3B8D04A6
BCB8CFC4
BD496159
BD43E54A
3C83794E
BD3DEC6C
3CC3DFEA
BC32A5C8
3CB7443E
3CD12502
3D0A8EF7
3C3D8530
BCBFAE90
3B6B94B0
BCD97CC0
3D277F3C
BD040AE2
BBCACBA0
BC332C19
3C6B1DA8
BD4DC64F
BD0E564E
3D8ED3C1
3D65A3BE
3D2D7F7C
BCD78958
BD2E1686
3B88D4BB
3D66B255
3D37EBF8
BD505D83
BD6EE2D2
BC36ED2C
3C9D9395
BAFF7BC3
BD82B22C
BC9A690B
3D06799E
BD1A0DCF
BA730790
3D1C64BF
BD80AE40
BA484E10
3CCF2E4C
3B0ED048
BCABB3EF
BC5D7400
BBA81B54
BD0E8F47
3C0C198B
3CED64B3
3CAD9FF8
3C174F4D
3CBE98C1
BD8076AE
BCBC4F0E
3C3E0126
3CE7BFD0
BCD65009
BD1EDE43
3C384CDC
BC60E06C
BD437A45
BD2AC339
3C6003B9
BD3B54FD
BBABAFCC
BD50DF36
BC43F10A
BD160E5D
3CB857AE
3CCDDD9E
3C1686D2
3C8FDD5B
3C98C0BF
BC9501EE
BCF4FC51
BCAB990C
BD2FDA8B
BB8B6869
BCB52DE1
BD35FF19
BD2D4575
3C85D272
3D568E09
BCF5680A
3B4F948E
BBE3F9BD
3D2B56ED
3BE5F72C
BCC559D0
3D428AD6
BD0FA0B3
BBDCF7FA
3D2087E2
3CDE9D60
3C7E66CF
3C5231BD
BC0A8323
3C40AFA6
BCAD6598
BB1D6AB9
BCBB4D24
3D001123
BCAFD6CC
3D0A53C4
BC9087AB
BCF5FDD7
BC4B488D
BC693DB9
3D17AA84
BD3BB894
3B5E52E1
3D049EE1
BBE4538C
3D472C30
3C250B90
3B31C580
3D2A8B98
3C5EBCD8
3CC3BEC0
BC028640
3C507838
3CFCD052
BBC9F375
3BFCB0D1
3D351E95
BBD84BB8
3C046A96
BC99A957
3D2F2DE3
3B90ED8D
BC2351E8
3C2D5924
BC9D6D85
BBA56927
3D1510ED
3CD597D7
3C367140
BAFD18D0
3C9605F5
BC8DA310
BAF12043
3D0E13E9
BC423700
BC8A299F
BD25A410
BD52722A
BCD6FD46
3AF5D9BA
BC5E77F0
BCB26E60
3BCC682A
3C0BAD7D
3D182DF2
BD60EA69
3D2A1C92
3D289AA3
BD529F0E
3C971F37
394AA9FA
BBC14EBC
BCB300E8
BB613ADA
3CBCEEE5
BD4FB222
BB2B9C5B
BBD93355
3CDF18E1
3CE36354
BCF72297
3C390283
BC34044C
3D0F6BC3
3D5E921D
BB8C833C
3CC32FF3
BD526D3A
BCD03B84
3C87AD24
BD11FDEC
BD1D718C
BD01FED1
BD132A1B
3C2BD2B0
BC7FEBF7
BD22A590
3D15D166
BBB74BF1
3C8EC07D
3C83BAE4
3CA437BD
BD5425BF
BB79144B
3D7E355B
3CEE4D1B
3D5472F2
BCF2FA1A
3D42AF31
3CEDABA4
BBF01D99
3CD34944
BD2B27BE
BB8C49F9
3D3BE7DD
3D1849DA
BCFB0E1C
BD04A1D1
BBD7AE74
BCE4A070
BCD453EF
BC3965E6
BCA053D3
3D1AA88E
3D499CAD
BD666912
BCF5B28B
BB9C7389
BA0ED706
BD071436
3D0400D8
3D34F155
BD52ECA4
BCADC1A1
BD2120C9
3D1BBD7B
BD4314FE
BD411BA0
3D10F829
3B9B23D6
398D1073
3CBDD02D
3CD8AB0C
3C6498A2
BC3315B7
BCE54275
3D7B2A97
3C7EE0F9
BD8CF629
BD357235
3C76A6D7
3D912C35
3C6B3DBB
BCDC1B16
3AC8BAE0
3C8E14BE
3C9156CE
3CE4726B
3D01D3E4
39AAA837
3D399B58
3D5DB4A8
3C5704F2
3C640AD1
3A429EE7
3CDB299F
3D58928C
BD78A5C0
BCB03141
BCEDA54F
BD190158
3D4AE0C7
3D20BF8A
3D517AF5
BBEFAAA0
BD98E202
3CBE151A
3D526FB2
BC967F3C
BD61E8AE
3ADCF988
3B8D6195
BC1B5093
BC250F01
39CD2153
3C85D993
BD219C01
3C57D482
3BF57D48
3D39810A
BCF6F848
3C51BA1C
3D4E77B7
BB91C406
3D2E7410
BCC163DE
BD4FA191
BB0A045D
BD072D3F
3D11566E
3CF1776B
BD4245ED
BD3C7DF0
BD1E23F7
3CB87788
3D204C8F
BC9B61D6
3D28F802
BD744FA6
BD3D7AAA
BD02DB28
BCA96CF1
3D3F195A
3BCBB1FD
3CCAB933
BCDF6355
3C5BB5E5
3CC57D67
3CEBA031
3D5A9D6D
BBB19963
BC3D84DE
BCF37AAD
3CFDD55D
3D367588
BB7BCE74
BD6DFDD1
BD3C54B6
BD1FDF4A
BB848125
3D0478D2
BD1F5818
3CD0D7A7
BC81F821
3CEDC013
3CF4CCD0
3D385DD6
3CD0D648
BD3EA86A
BC56E238
3CBEEEAF
3CD59B8D
3D28CED9
3D29A123
BC244918
BCF5A912
BD043143
BD042036
BD4639B6
3D43F38F
3CB06A23
3D1E6CD5
3B83B0EC
BCD26B5D
3CBF948D
3D2608A2
BCE921E6
BC111B3D
3C3C8695
3CE02708
3CDAB531
BBA37844
BC678BB1
BCED94D1
3C876075
3D2707FB
BBA8370D
BD867FCF
3CF278E1
BD162D4E
BD1B4E19
BC1EE469
BD5A839B
3CBCA345
3CE6AB84
BD4E2A5C
3CD44462
BC6C9D86
BC547D45
BB0187D7
3D3A8361
3CA496C9
BCE2FDD2
BD3D434F
BCD21FB0
3D26551B
3CFC2C3D
3CEC0058
BD024F6C
3CA624DA
3C8E62B0
