BD4025B4
BBD1833C
BC04F127
3C0D6F18
BB6E6986
BBA5AE2F
3C957E31
BD1410C7
BC7FF594
3C8E982E
BD2CAFD5
3D21473E
3C9C248A
3C609AB4
3CEDD53B
BC528FDF
3D12C217
BD5B867B
BD447833
BD08FA76
3D227F2A
BD1DD010
3C4D757E
3C942447
BC669DD1
3CD1DBDE
BD0F3658
3CBAD5D9
BB3C2C6C
3C6CD7A0
BCC89EDB
3D52DEAE
3D03A0CC
3CDC82D8
BB9C6E5E
BD13241C
3C667E50
BC982649
3B7206EE
BCFB232D
3D1DC836
3B03333B
3D7CA7F0
BD07B27B
BD193EBD
BC5FC5E7
3CA7B054
3CE0FB35
BC725327
BD042F5C
3CAE74F6
BC5BF7DE
3C244EF4
BD1A2BC2
BD198FE5
3D3EF11B
BC94791D
3D3C7FD9
BBB40D58
3CF6CF37
BD35D352
BCAFDBA1
BC94068F
BC8C701B
BCB88EF0
3D351AAB
3AC62375
BC9C5C4E
BCBDE381
3D18E17F
BD05DBA1
BD45FEA1
BCC43305
BD31AEFB
BCA3F55C
3D62D8BD
BCD0AC58
BC123BA4
BC681471
3D0F821D
BCFA14BF
BCCDEADF
3D056CD8
3CF96A3F
BB5A3383
3D484E5C
BD3C8BDD
BCA49467
BC87E32D
BCAF049A
3B48E582
BCF86C63
BA9FB32D
3C2B8449
3CF4119B
3D3887DA
3CF48320
3CC203BD
3D4A7F0D
BD0AB314
3C9AFE42
3CFF5E70
B9B01B8C
3CD0E366
BC0C3CFE
BC8F01B1
BC5B935E
3D015CC0
3D1BB62C
3CA8AC74
BD432012
BB46D1ED
BB523B4F
BCE4892C
3CEF0ADA
BD26E505
BD1F8B19
BCB2AEDF
BC02190C
3CB55A95

